{
  "version": "1.0",
  "truncation": null,
  "padding": null,
  "added_tokens": [
    {
      "id": 0,
      "content": "<unk>",
      "single_word": false,
      "lstrip": false,
      "rstrip": false,
      "normalized": false,
      "special": true
    },
    {
      "id": 1,
      "content": "<pad>",
      "single_word": false,
      "lstrip": false,
      "rstrip": false,
      "normalized": false,
      "special": true
    },
    {
      "id": 2,
      "content": "<bos>",
      "single_word": false,
      "lstrip": false,
      "rstrip": false,
      "normalized": false,
      "special": true
    },
    {
      "id": 3,
      "content": "<eos>",
      "single_word": false,
      "lstrip": false,
      "rstrip": false,
      "normalized": false,
      "special": true
    }
  ],
  "normalizer": null,
  "pre_tokenizer": {
    "type": "Whitespace"
  },
  "post_processor": null,
  "decoder": null,
  "model": {
    "type": "BPE",
    "dropout": null,
    "unk_token": null,
    "continuing_subword_prefix": null,
    "end_of_word_suffix": null,
    "fuse_unk": false,
    "byte_fallback": false,
    "ignore_merges": false,
    "vocab": {
      "<unk>": 0,
      "<pad>": 1,
      "<bos>": 2,
      "<eos>": 3,
      "3": 4,
      "a": 5,
      "b": 6,
      "c": 7,
      "d": 8,
      "e": 9,
      "f": 10,
      "g": 11,
      "h": 12,
      "i": 13,
      "j": 14,
      "k": 15,
      "l": 16,
      "m": 17,
      "n": 18,
      "o": 19,
      "p": 20,
      "q": 21,
      "r": 22,
      "s": 23,
      "t": 24,
      "u": 25,
      "v": 26,
      "w": 27,
      "x": 28,
      "y": 29,
      "z": 30,
      "th": 31,
      "ou": 32,
      "an": 33,
      "er": 34,
      "in": 35,
      "the": 36,
      "or": 37,
      "en": 38,
      "ar": 39,
      "is": 40,
      "es": 41,
      "on": 42,
      "and": 43,
      "at": 44,
      "ll": 45,
      "to": 46,
      "st": 47,
      "you": 48,
      "me": 49,
      "no": 50,
      "ha": 51,
      "ing": 52,
      "se": 53,
      "of": 54,
      "wh": 55,
      "le": 56,
      "wi": 57,
      "be": 58,
      "he": 59,
      "re": 60,
      "it": 61,
      "ve": 62,
      "ch": 63,
      "ro": 64,
      "my": 65,
      "for": 66,
      "as": 67,
      "ce": 68,
      "ay": 69,
      "that": 70,
      "ed": 71,
      "li": 72,
      "ir": 73,
      "ld": 74,
      "we": 75,
      "ut": 76,
      "ere": 77,
      "ke": 78,
      "not": 79,
      "us": 80,
      "ri": 81,
      "de": 82,
      "lo": 83,
      "with": 84,
      "so": 85,
      "gh": 86,
      "ent": 87,
      "co": 88,
      "thou": 89,
      "your": 90,
      "go": 91,
      "hi": 92,
      "ow": 93,
      "our": 94,
      "et": 95,
      "al": 96,
      "ad": 97,
      "ther": 98,
      "his": 99,
      "but": 100,
      "un": 101,
      "this": 102,
      "io": 103,
      "all": 104,
      "est": 105,
      "have": 106,
      "ard": 107,
      "ly": 108,
      "do": 109,
      "ur": 110,
      "ght": 111,
      "ra": 112,
      "him": 113,
      "ma": 114,
      "king": 115,
      "od": 116,
      "ord": 117,
      "ess": 118,
      "what": 119,
      "now": 120,
      "am": 121,
      "pe": 122,
      "thy": 123,
      "ver": 124,
      "ill": 125,
      "sha": 126,
      "are": 127,
      "fe": 128,
      "id": 129,
      "will": 130,
      "her": 131,
      "ould": 132,
      "fa": 133,
      "ck": 134,
      "ge": 135,
      "one": 136,
      "man": 137,
      "ne": 138,
      "by": 139,
      "ru": 140,
      "su": 141,
      "la": 142,
      "ta": 143,
      "pr": 144,
      "ti": 145,
      "if": 146,
      "po": 147,
      "con": 148,
      "ter": 149,
      "sh": 150,
      "shall": 151,
      "lord": 152,
      "end": 153,
      "qu": 154,
      "mor": 155,
      "thee": 156,
      "whi": 157,
      "com": 158,
      "art": 159,
      "come": 160,
      "up": 161,
      "bo": 162,
      "ca": 163,
      "ry": 164,
      "ho": 165,
      "let": 166,
      "good": 167,
      "well": 168,
      "mo": 169,
      "ain": 170,
      "fro": 171,
      "ence": 172,
      "du": 173,
      "oun": 174,
      "ous": 175,
      "sel": 176,
      "mar": 177,
      "si": 178,
      "mu": 179,
      "she": 180,
      "sir": 181,
      "te": 182,
      "pro": 183,
      "then": 184,
      "per": 185,
      "from": 186,
      "ius": 187,
      "was": 188,
      "than": 189,
      "ine": 190,
      "ath": 191,
      "there": 192,
      "who": 193,
      "more": 194,
      "ant": 195,
      "ion": 196,
      "which": 197,
      "ul": 198,
      "ble": 199,
      "here": 200,
      "would": 201,
      "ven": 202,
      "row": 203,
      "can": 204,
      "they": 205,
      "ward": 206,
      "ind": 207,
      "men": 208,
      "ate": 209,
      "say": 210,
      "how": 211,
      "ong": 212,
      "out": 213,
      "ight": 214,
      "sa": 215,
      "wor": 216,
      "them": 217,
      "know": 218,
      "bro": 219,
      "self": 220,
      "ak": 221,
      "see": 222,
      "ers": 223,
      "ct": 224,
      "their": 225,
      "rich": 226,
      "gre": 227,
      "love": 228,
      "wo": 229,
      "ive": 230,
      "il": 231,
      "gl": 232,
      "tis": 233,
      "ie": 234,
      "war": 235,
      "duke": 236,
      "like": 237,
      "were": 238,
      "ag": 239,
      "may": 240,
      "hath": 241,
      "spe": 242,
      "lu": 243,
      "when": 244,
      "ba": 245,
      "fo": 246,
      "where": 247,
      "au": 248,
      "fore": 249,
      "ok": 250,
      "ves": 251,
      "ep": 252,
      "nor": 253,
      "vo": 254,
      "some": 255,
      "fir": 256,
      "upon": 257,
      "make": 258,
      "que": 259,
      "ish": 260,
      "fri": 261,
      "way": 262,
      "should": 263,
      "tru": 264,
      "must": 265,
      "richard": 266,
      "yet": 267,
      "did": 268,
      "ju": 269,
      "ink": 270,
      "had": 271,
      "queen": 272,
      "rome": 273,
      "son": 274,
      "ii": 275,
      "ple": 276,
      "mb": 277,
      "cent": 278,
      "gra": 279,
      "pa": 280,
      "ran": 281,
      "thing": 282,
      "own": 283,
      "first": 284,
      "ear": 285,
      "why": 286,
      "father": 287,
      "mer": 288,
      "ound": 289,
      "god": 290,
      "ci": 291,
      "vi": 292,
      "der": 293,
      "el": 294,
      "ady": 295,
      "too": 296,
      "edward": 297,
      "again": 298,
      "cor": 299,
      "dis": 300,
      "ity": 301,
      "br": 302,
      "blo": 303,
      "ure": 304,
      "hast": 305,
      "take": 306,
      "ty": 307,
      "centio": 308,
      "death": 309,
      "speak": 310,
      "gent": 311,
      "mis": 312,
      "day": 313,
      "use": 314,
      "pet": 315,
      "give": 316,
      "hen": 317,
      "off": 318,
      "time": 319,
      "ser": 320,
      "word": 321,
      "ince": 322,
      "think": 323,
      "swe": 324,
      "henry": 325,
      "ort": 326,
      "tell": 327,
      "lan": 328,
      "mine": 329,
      "sp": 330,
      "yor": 331,
      "gentle": 332,
      "york": 333,
      "ex": 334,
      "heart": 335,
      "these": 336,
      "very": 337,
      "gu": 338,
      "look": 339,
      "romeo": 340,
      "ful": 341,
      "na": 342,
      "most": 343,
      "hand": 344,
      "hear": 345,
      "such": 346,
      "mon": 347,
      "hea": 348,
      "cest": 349,
      "cl": 350,
      "hon": 351,
      "ab": 352,
      "less": 353,
      "abe": 354,
      "di": 355,
      "jo": 356,
      "oucest": 357,
      "gloucest": 358,
      "brother": 359,
      "land": 360,
      "ment": 361,
      "des": 362,
      "gn": 363,
      "lady": 364,
      "gloucester": 365,
      "ts": 366,
      "af": 367,
      "bre": 368,
      "blood": 369,
      "wick": 370,
      "ness": 371,
      "vin": 372,
      "bu": 373,
      "other": 374,
      "coun": 375,
      "mp": 376,
      "ac": 377,
      "ey": 378,
      "any": 379,
      "pp": 380,
      "llow": 381,
      "stand": 382,
      "fair": 383,
      "ance": 384,
      "lea": 385,
      "friend": 386,
      "new": 387,
      "ster": 388,
      "life": 389,
      "vincentio": 390,
      "oul": 391,
      "made": 392,
      "warwick": 393,
      "ange": 394,
      "pray": 395,
      "ild": 396,
      "ving": 397,
      "lt": 398,
      "call": 399,
      "ans": 400,
      "urse": 401,
      "ling": 402,
      "lie": 403,
      "much": 404,
      "iz": 405,
      "honour": 406,
      "fear": 407,
      "never": 408,
      "tion": 409,
      "great": 410,
      "urn": 411,
      "ang": 412,
      "ms": 413,
      "tr": 414,
      "ise": 415,
      "ic": 416,
      "wn": 417,
      "pre": 418,
      "ings": 419,
      "pla": 420,
      "inius": 421,
      "done": 422,
      "sweet": 423,
      "part": 424,
      "doth": 425,
      "les": 426,
      "bear": 427,
      "fort": 428,
      "heaven": 429,
      "age": 430,
      "ies": 431,
      "int": 432,
      "corio": 433,
      "true": 434,
      "ice": 435,
      "tle": 436,
      "bet": 437,
      "gar": 438,
      "before": 439,
      "rown": 440,
      "lay": 441,
      "cond": 442,
      "petru": 443,
      "name": 444,
      "thus": 445,
      "chio": 446,
      "live": 447,
      "both": 448,
      "cannot": 449,
      "petruchio": 450,
      "wer": 451,
      "ina": 452,
      "ation": 453,
      "mber": 454,
      "night": 455,
      "noble": 456,
      "head": 457,
      "away": 458,
      "being": 459,
      "cap": 460,
      "ol": 461,
      "ue": 462,
      "red": 463,
      "ens": 464,
      "set": 465,
      "ford": 466,
      "prince": 467,
      "lanus": 468,
      "coriolanus": 469,
      "pri": 470,
      "res": 471,
      "been": 472,
      "ough": 473,
      "ont": 474,
      "hold": 475,
      "juli": 476,
      "enius": 477,
      "menenius": 478,
      "though": 479,
      "ast": 480,
      "juliet": 481,
      "mad": 482,
      "cut": 483,
      "tho": 484,
      "ass": 485,
      "second": 486,
      "ase": 487,
      "fi": 488,
      "long": 489,
      "wr": 490,
      "ever": 491,
      "ap": 492,
      "op": 493,
      "down": 494,
      "mio": 495,
      "ouse": 496,
      "myself": 497,
      "grace": 498,
      "old": 499,
      "par": 500,
      "put": 501,
      "soul": 502,
      "leave": 503,
      "cour": 504,
      "comes": 505,
      "therefore": 506,
      "broke": 507,
      "ef": 508,
      "gr": 509,
      "poor": 510,
      "world": 511,
      "aught": 512,
      "ars": 513,
      "stay": 514,
      "deed": 515,
      "against": 516,
      "dead": 517,
      "pres": 518,
      "im": 519,
      "ved": 520,
      "rest": 521,
      "ins": 522,
      "isabe": 523,
      "clo": 524,
      "ss": 525,
      "tre": 526,
      "ian": 527,
      "angelo": 528,
      "ite": 529,
      "mother": 530,
      "ret": 531,
      "ach": 532,
      "cking": 533,
      "bes": 534,
      "ces": 535,
      "kes": 536,
      "bid": 537,
      "cit": 538,
      "nay": 539,
      "ace": 540,
      "house": 541,
      "ign": 542,
      "till": 543,
      "thought": 544,
      "cause": 545,
      "eyes": 546,
      "might": 547,
      "right": 548,
      "clar": 549,
      "nurse": 550,
      "atch": 551,
      "lords": 552,
      "clarence": 553,
      "che": 554,
      "ga": 555,
      "tri": 556,
      "ree": 557,
      "child": 558,
      "ren": 559,
      "wife": 560,
      "even": 561,
      "tra": 562,
      "ull": 563,
      "beg": 564,
      "show": 565,
      "daught": 566,
      "ham": 567,
      "led": 568,
      "wel": 569,
      "ond": 570,
      "many": 571,
      "citiz": 572,
      "tran": 573,
      "cam": 574,
      "nothing": 575,
      "friends": 576,
      "car": 577,
      "die": 578,
      "lla": 579,
      "boling": 580,
      "cla": 581,
      "ft": 582,
      "iii": 583,
      "cal": 584,
      "crown": 585,
      "atter": 586,
      "light": 587,
      "whose": 588,
      "ten": 589,
      "tal": 590,
      "gri": 591,
      "lit": 592,
      "ps": 593,
      "peace": 594,
      "bolingbroke": 595,
      "har": 596,
      "hence": 597,
      "ks": 598,
      "kind": 599,
      "better": 600,
      "isabella": 601,
      "ors": 602,
      "dear": 603,
      "gi": 604,
      "mi": 605,
      "mur": 606,
      "leont": 607,
      "leontes": 608,
      "cy": 609,
      "unto": 610,
      "friar": 611,
      "bucking": 612,
      "cli": 613,
      "cio": 614,
      "iv": 615,
      "tong": 616,
      "oud": 617,
      "buckingham": 618,
      "fl": 619,
      "pow": 620,
      "ates": 621,
      "master": 622,
      "comm": 623,
      "sic": 624,
      "cious": 625,
      "words": 626,
      "those": 627,
      "could": 628,
      "gone": 629,
      "char": 630,
      "face": 631,
      "pose": 632,
      "still": 633,
      "bra": 634,
      "sen": 635,
      "two": 636,
      "ban": 637,
      "far": 638,
      "youn": 639,
      "keep": 640,
      "under": 641,
      "tranio": 642,
      "cius": 643,
      "cont": 644,
      "gentleman": 645,
      "murder": 646,
      "young": 647,
      "sent": 648,
      "ted": 649,
      "ison": 650,
      "marcius": 651,
      "lucio": 652,
      "fare": 653,
      "ither": 654,
      "pur": 655,
      "sle": 656,
      "since": 657,
      "news": 658,
      "hour": 659,
      "sla": 660,
      "joy": 661,
      "little": 662,
      "sicinius": 663,
      "mean": 664,
      "hel": 665,
      "daughter": 666,
      "cur": 667,
      "full": 668,
      "ears": 669,
      "bl": 670,
      "band": 671,
      "best": 672,
      "cus": 673,
      "pt": 674,
      "margar": 675,
      "after": 676,
      "margaret": 677,
      "able": 678,
      "pard": 679,
      "tend": 680,
      "vir": 681,
      "capu": 682,
      "once": 683,
      "forth": 684,
      "sub": 685,
      "capulet": 686,
      "ction": 687,
      "ech": 688,
      "sor": 689,
      "happ": 690,
      "roy": 691,
      "liz": 692,
      "high": 693,
      "whom": 694,
      "back": 695,
      "just": 696,
      "else": 697,
      "mn": 698,
      "himself": 699,
      "illo": 700,
      "law": 701,
      "please": 702,
      "camillo": 703,
      "clif": 704,
      "power": 705,
      "bus": 706,
      "den": 707,
      "find": 708,
      "unt": 709,
      "cle": 710,
      "thine": 711,
      "pardon": 712,
      "get": 713,
      "hor": 714,
      "em": 715,
      "eliz": 716,
      "need": 717,
      "comp": 718,
      "abeth": 719,
      "elizabeth": 720,
      "dre": 721,
      "hus": 722,
      "nat": 723,
      "none": 724,
      "ought": 725,
      "arina": 726,
      "une": 727,
      "kath": 728,
      "ot": 729,
      "its": 730,
      "ried": 731,
      "while": 732,
      "hope": 733,
      "ield": 734,
      "earth": 735,
      "katharina": 736,
      "wa": 737,
      "tain": 738,
      "conf": 739,
      "boy": 740,
      "follow": 741,
      "ben": 742,
      "je": 743,
      "ason": 744,
      "cha": 745,
      "fall": 746,
      "iness": 747,
      "gods": 748,
      "bring": 749,
      "place": 750,
      "madam": 751,
      "bod": 752,
      "ger": 753,
      "ken": 754,
      "mind": 755,
      "om": 756,
      "ste": 757,
      "fellow": 758,
      "came": 759,
      "home": 760,
      "husband": 761,
      "bal": 762,
      "ud": 763,
      "qui": 764,
      "dra": 765,
      "ls": 766,
      "thr": 767,
      "tongue": 768,
      "farewell": 769,
      "dou": 770,
      "hes": 771,
      "citizen": 772,
      "bor": 773,
      "sto": 774,
      "ye": 775,
      "ird": 776,
      "last": 777,
      "lets": 778,
      "lucentio": 779,
      "bap": 780,
      "count": 781,
      "cre": 782,
      "cous": 783,
      "every": 784,
      "gru": 785,
      "kill": 786,
      "ister": 787,
      "bed": 788,
      "gue": 789,
      "baptis": 790,
      "hort": 791,
      "hastings": 792,
      "serv": 793,
      "tress": 794,
      "erd": 795,
      "said": 796,
      "ensio": 797,
      "help": 798,
      "hortensio": 799,
      "dow": 800,
      "over": 801,
      "into": 802,
      "ist": 803,
      "utus": 804,
      "pom": 805,
      "morrow": 806,
      "welcome": 807,
      "pat": 808,
      "umber": 809,
      "rep": 810,
      "shame": 811,
      "hands": 812,
      "fal": 813,
      "ople": 814,
      "sun": 815,
      "turn": 816,
      "ory": 817,
      "people": 818,
      "woman": 819,
      "brutus": 820,
      "about": 821,
      "servant": 822,
      "heard": 823,
      "reme": 824,
      "dost": 825,
      "provo": 826,
      "bri": 827,
      "mes": 828,
      "shi": 829,
      "tears": 830,
      "mistress": 831,
      "present": 832,
      "baptista": 833,
      "jest": 834,
      "sand": 835,
      "sper": 836,
      "um": 837,
      "stri": 838,
      "wit": 839,
      "thats": 840,
      "maid": 841,
      "prosper": 842,
      "north": 843,
      "answer": 844,
      "bur": 845,
      "meet": 846,
      "cho": 847,
      "uty": 848,
      "marry": 849,
      "wrong": 850,
      "royal": 851,
      "provost": 852,
      "makes": 853,
      "sorrow": 854,
      "cousin": 855,
      "cess": 856,
      "gen": 857,
      "run": 858,
      "indeed": 859,
      "lies": 860,
      "weep": 861,
      "vers": 862,
      "sign": 863,
      "sit": 864,
      "vy": 865,
      "wilt": 866,
      "grumio": 867,
      "fid": 868,
      "ith": 869,
      "escal": 870,
      "state": 871,
      "has": 872,
      "cominius": 873,
      "clifford": 874,
      "escalus": 875,
      "play": 876,
      "pey": 877,
      "selves": 878,
      "gracious": 879,
      "paul": 880,
      "pompey": 881,
      "ia": 882,
      "vill": 883,
      "ready": 884,
      "thousand": 885,
      "whats": 886,
      "prove": 887,
      "content": 888,
      "bar": 889,
      "ff": 890,
      "vil": 891,
      "xt": 892,
      "iss": 893,
      "hither": 894,
      "fool": 895,
      "fathers": 896,
      "eye": 897,
      "doub": 898,
      "sound": 899,
      "within": 900,
      "prison": 901,
      "gremio": 902,
      "mercut": 903,
      "bese": 904,
      "mercutio": 905,
      "another": 906,
      "engl": 907,
      "only": 908,
      "asure": 909,
      "ceive": 910,
      "ishd": 911,
      "grief": 912,
      "cra": 913,
      "oer": 914,
      "sed": 915,
      "low": 916,
      "herd": 917,
      "poli": 918,
      "aufid": 919,
      "vice": 920,
      "spir": 921,
      "claud": 922,
      "happy": 923,
      "body": 924,
      "umberland": 925,
      "northumberland": 926,
      "aufidius": 927,
      "claudio": 928,
      "ged": 929,
      "str": 930,
      "stru": 931,
      "faith": 932,
      "thank": 933,
      "false": 934,
      "hate": 935,
      "ire": 936,
      "min": 937,
      "pass": 938,
      "vere": 939,
      "chess": 940,
      "rather": 941,
      "duchess": 942,
      "talk": 943,
      "sleep": 944,
      "ject": 945,
      "ning": 946,
      "send": 947,
      "third": 948,
      "comfort": 949,
      "swear": 950,
      "sc": 951,
      "three": 952,
      "ouch": 953,
      "form": 954,
      "paulina": 955,
      "ber": 956,
      "ier": 957,
      "sold": 958,
      "got": 959,
      "faul": 960,
      "tybal": 961,
      "monta": 962,
      "trait": 963,
      "virt": 964,
      "dar": 965,
      "hang": 966,
      "kne": 967,
      "matter": 968,
      "rant": 969,
      "vis": 970,
      "llo": 971,
      "times": 972,
      "seem": 973,
      "deser": 974,
      "murderer": 975,
      "wis": 976,
      "xen": 977,
      "tomorrow": 978,
      "belie": 979,
      "ours": 980,
      "kings": 981,
      "shalt": 982,
      "sure": 983,
      "fortune": 984,
      "beseech": 985,
      "bit": 986,
      "bow": 987,
      "care": 988,
      "fight": 989,
      "gon": 990,
      "reason": 991,
      "wear": 992,
      "voli": 993,
      "va": 994,
      "stra": 995,
      "med": 996,
      "sovere": 997,
      "command": 998,
      "benvoli": 999,
      "villain": 1000,
      "polixen": 1001,
      "sovereign": 1002,
      "benvolio": 1003,
      "fran": 1004,
      "spo": 1005,
      "vent": 1006,
      "toly": 1007,
      "rel": 1008,
      "proud": 1009,
      "aint": 1010,
      "autoly": 1011,
      "grave": 1012,
      "dream": 1013,
      "country": 1014,
      "pati": 1015,
      "polixenes": 1016,
      "autolycus": 1017,
      "bla": 1018,
      "gro": 1019,
      "ious": 1020,
      "pherd": 1021,
      "years": 1022,
      "arm": 1023,
      "reat": 1024,
      "reven": 1025,
      "holy": 1026,
      "shepherd": 1027,
      "truth": 1028,
      "anger": 1029,
      "business": 1030,
      "ig": 1031,
      "ught": 1032,
      "want": 1033,
      "wind": 1034,
      "arms": 1035,
      "stran": 1036,
      "read": 1037,
      "bast": 1038,
      "montague": 1039,
      "bian": 1040,
      "tw": 1041,
      "enough": 1042,
      "sea": 1043,
      "without": 1044,
      "unes": 1045,
      "common": 1046,
      "saw": 1047,
      "things": 1048,
      "doubt": 1049,
      "foul": 1050,
      "late": 1051,
      "pity": 1052,
      "yield": 1053,
      "hell": 1054,
      "lives": 1055,
      "cks": 1056,
      "volu": 1057,
      "breath": 1058,
      "clown": 1059,
      "prospero": 1060,
      "ide": 1061,
      "lar": 1062,
      "wish": 1063,
      "bea": 1064,
      "force": 1065,
      "cold": 1066,
      "fect": 1067,
      "temp": 1068,
      "save": 1069,
      "appe": 1070,
      "ah": 1071,
      "free": 1072,
      "kiss": 1073,
      "lf": 1074,
      "mess": 1075,
      "wd": 1076,
      "won": 1077,
      "ask": 1078,
      "theres": 1079,
      "laur": 1080,
      "worthy": 1081,
      "trust": 1082,
      "days": 1083,
      "nature": 1084,
      "tybalt": 1085,
      "believe": 1086,
      "city": 1087,
      "curse": 1088,
      "kate": 1089,
      "sister": 1090,
      "watch": 1091,
      "inter": 1092,
      "ator": 1093,
      "uncle": 1094,
      "pect": 1095,
      "honest": 1096,
      "born": 1097,
      "laurence": 1098,
      "fit": 1099,
      "fur": 1100,
      "lam": 1101,
      "sing": 1102,
      "wat": 1103,
      "oft": 1104,
      "worn": 1105,
      "foot": 1106,
      "break": 1107,
      "subject": 1108,
      "draw": 1109,
      "bianca": 1110,
      "igh": 1111,
      "mir": 1112,
      "anne": 1113,
      "ene": 1114,
      "ats": 1115,
      "deli": 1116,
      "yourself": 1117,
      "does": 1118,
      "quest": 1119,
      "luck": 1120,
      "serving": 1121,
      "plain": 1122,
      "return": 1123,
      "horse": 1124,
      "mus": 1125,
      "wound": 1126,
      "toge": 1127,
      "means": 1128,
      "yours": 1129,
      "looks": 1130,
      "ments": 1131,
      "bloody": 1132,
      "justice": 1133,
      "oath": 1134,
      "sin": 1135,
      "ting": 1136,
      "seen": 1137,
      "left": 1138,
      "widow": 1139,
      "neer": 1140,
      "cons": 1141,
      "mark": 1142,
      "woe": 1143,
      "fol": 1144,
      "aumer": 1145,
      "hearts": 1146,
      "mnia": 1147,
      "through": 1148,
      "remember": 1149,
      "volumnia": 1150,
      "together": 1151,
      "aumerle": 1152,
      "cer": 1153,
      "cry": 1154,
      "hun": 1155,
      "ones": 1156,
      "told": 1157,
      "mercy": 1158,
      "haste": 1159,
      "tender": 1160,
      "gener": 1161,
      "england": 1162,
      "fly": 1163,
      "ior": 1164,
      "enger": 1165,
      "ition": 1166,
      "change": 1167,
      "ute": 1168,
      "loves": 1169,
      "gold": 1170,
      "near": 1171,
      "brothers": 1172,
      "court": 1173,
      "servingman": 1174,
      "bion": 1175,
      "hy": 1176,
      "ily": 1177,
      "ped": 1178,
      "sad": 1179,
      "val": 1180,
      "ery": 1181,
      "half": 1182,
      "soon": 1183,
      "majest": 1184,
      "point": 1185,
      "person": 1186,
      "grey": 1187,
      "thinks": 1188,
      "report": 1189,
      "messenger": 1190,
      "cates": 1191,
      "danger": 1192,
      "either": 1193,
      "fet": 1194,
      "hard": 1195,
      "obe": 1196,
      "sm": 1197,
      "sword": 1198,
      "tit": 1199,
      "because": 1200,
      "thyself": 1201,
      "heres": 1202,
      "sil": 1203,
      "sight": 1204,
      "promis": 1205,
      "warrant": 1206,
      "ices": 1207,
      "fire": 1208,
      "gaunt": 1209,
      "flor": 1210,
      "majesty": 1211,
      "hn": 1212,
      "pain": 1213,
      "dello": 1214,
      "sup": 1215,
      "suit": 1216,
      "known": 1217,
      "corn": 1218,
      "john": 1219,
      "ship": 1220,
      "biondello": 1221,
      "app": 1222,
      "ied": 1223,
      "imp": 1224,
      "touch": 1225,
      "ze": 1226,
      "toward": 1227,
      "lear": 1228,
      "beat": 1229,
      "heir": 1230,
      "bold": 1231,
      "heavy": 1232,
      "paris": 1233,
      "children": 1234,
      "charge": 1235,
      "catesby": 1236,
      "air": 1237,
      "bat": 1238,
      "ton": 1239,
      "twas": 1240,
      "ench": 1241,
      "ush": 1242,
      "enter": 1243,
      "sue": 1244,
      "past": 1245,
      "purpose": 1246,
      "traitor": 1247,
      "strange": 1248,
      "folk": 1249,
      "athe": 1250,
      "found": 1251,
      "grow": 1252,
      "def": 1253,
      "deep": 1254,
      "lost": 1255,
      "alas": 1256,
      "mast": 1257,
      "says": 1258,
      "gentlemen": 1259,
      "thoughts": 1260,
      "signior": 1261,
      "strong": 1262,
      "lest": 1263,
      "ner": 1264,
      "wise": 1265,
      "ary": 1266,
      "behold": 1267,
      "ceed": 1268,
      "loss": 1269,
      "enty": 1270,
      "ides": 1271,
      "fast": 1272,
      "canst": 1273,
      "norfolk": 1274,
      "pair": 1275,
      "edwards": 1276,
      "blow": 1277,
      "liege": 1278,
      "izel": 1279,
      "quick": 1280,
      "bury": 1281,
      "florizel": 1282,
      "dy": 1283,
      "each": 1284,
      "gs": 1285,
      "sur": 1286,
      "sworn": 1287,
      "wall": 1288,
      "outh": 1289,
      "ore": 1290,
      "hed": 1291,
      "devil": 1292,
      "alone": 1293,
      "hermi": 1294,
      "prof": 1295,
      "quar": 1296,
      "letter": 1297,
      "married": 1298,
      "thanks": 1299,
      "loved": 1300,
      "women": 1301,
      "mond": 1302,
      "acc": 1303,
      "souls": 1304,
      "ground": 1305,
      "hours": 1306,
      "confess": 1307,
      "spirit": 1308,
      "twenty": 1309,
      "hermione": 1310,
      "gth": 1311,
      "pluck": 1312,
      "instru": 1313,
      "rivers": 1314,
      "entreat": 1315,
      "adv": 1316,
      "main": 1317,
      "mans": 1318,
      "worth": 1319,
      "jud": 1320,
      "brought": 1321,
      "used": 1322,
      "service": 1323,
      "exe": 1324,
      "stands": 1325,
      "slain": 1326,
      "learn": 1327,
      "bound": 1328,
      "hum": 1329,
      "oth": 1330,
      "pi": 1331,
      "wed": 1332,
      "ons": 1333,
      "having": 1334,
      "lead": 1335,
      "press": 1336,
      "cast": 1337,
      "knows": 1338,
      "richmond": 1339,
      "didst": 1340,
      "resol": 1341,
      "strike": 1342,
      "straight": 1343,
      "france": 1344,
      "beauty": 1345,
      "bour": 1346,
      "dish": 1347,
      "eld": 1348,
      "mas": 1349,
      "twi": 1350,
      "anti": 1351,
      "sebast": 1352,
      "lia": 1353,
      "lose": 1354,
      "dom": 1355,
      "pos": 1356,
      "post": 1357,
      "consu": 1358,
      "same": 1359,
      "counter": 1360,
      "course": 1361,
      "grant": 1362,
      "enemy": 1363,
      "deliver": 1364,
      "general": 1365,
      "execut": 1366,
      "sebastian": 1367,
      "alo": 1368,
      "act": 1369,
      "cro": 1370,
      "dr": 1371,
      "ges": 1372,
      "saint": 1373,
      "wast": 1374,
      "attend": 1375,
      "ley": 1376,
      "feel": 1377,
      "suff": 1378,
      "ends": 1379,
      "hop": 1380,
      "move": 1381,
      "anton": 1382,
      "speed": 1383,
      "desire": 1384,
      "heavens": 1385,
      "open": 1386,
      "senator": 1387,
      "yea": 1388,
      "revenge": 1389,
      "abo": 1390,
      "bles": 1391,
      "duty": 1392,
      "fie": 1393,
      "gain": 1394,
      "ox": 1395,
      "twere": 1396,
      "youth": 1397,
      "itself": 1398,
      "shes": 1399,
      "sion": 1400,
      "perd": 1401,
      "work": 1402,
      "ils": 1403,
      "counsel": 1404,
      "fault": 1405,
      "antonio": 1406,
      "ack": 1407,
      "burn": 1408,
      "dro": 1409,
      "dam": 1410,
      "eer": 1411,
      "four": 1412,
      "field": 1413,
      "pl": 1414,
      "sal": 1415,
      "tro": 1416,
      "stren": 1417,
      "youll": 1418,
      "held": 1419,
      "withal": 1420,
      "unless": 1421,
      "order": 1422,
      "ckd": 1423,
      "suc": 1424,
      "short": 1425,
      "marri": 1426,
      "side": 1427,
      "sake": 1428,
      "sons": 1429,
      "serve": 1430,
      "guil": 1431,
      "prithee": 1432,
      "ched": 1433,
      "citizens": 1434,
      "claim": 1435,
      "given": 1436,
      "flatter": 1437,
      "company": 1438,
      "water": 1439,
      "masters": 1440,
      "fer": 1441,
      "pen": 1442,
      "sat": 1443,
      "tor": 1444,
      "ua": 1445,
      "wret": 1446,
      "met": 1447,
      "chance": 1448,
      "som": 1449,
      "fection": 1450,
      "pleasure": 1451,
      "pale": 1452,
      "fearful": 1453,
      "pret": 1454,
      "patience": 1455,
      "oxford": 1456,
      "cas": 1457,
      "dare": 1458,
      "hu": 1459,
      "lad": 1460,
      "ob": 1461,
      "vour": 1462,
      "yes": 1463,
      "stan": 1464,
      "stir": 1465,
      "lewis": 1466,
      "loving": 1467,
      "cover": 1468,
      "tale": 1469,
      "safe": 1470,
      "something": 1471,
      "brave": 1472,
      "wonder": 1473,
      "flo": 1474,
      "pra": 1475,
      "pie": 1476,
      "vow": 1477,
      "wal": 1478,
      "zalo": 1479,
      "throw": 1480,
      "anta": 1481,
      "ated": 1482,
      "took": 1483,
      "stre": 1484,
      "become": 1485,
      "rah": 1486,
      "mortal": 1487,
      "sirrah": 1488,
      "vols": 1489,
      "voices": 1490,
      "offic": 1491,
      "breathe": 1492,
      "trib": 1493,
      "hark": 1494,
      "highness": 1495,
      "gonzalo": 1496,
      "bad": 1497,
      "cri": 1498,
      "knew": 1499,
      "test": 1500,
      "ues": 1501,
      "thor": 1502,
      "thri": 1503,
      "ita": 1504,
      "ally": 1505,
      "neither": 1506,
      "next": 1507,
      "prin": 1508,
      "coming": 1509,
      "prop": 1510,
      "worse": 1511,
      "banish": 1512,
      "virtue": 1513,
      "certain": 1514,
      "strength": 1515,
      "marriage": 1516,
      "dor": 1517,
      "emb": 1518,
      "iers": 1519,
      "mit": 1520,
      "soft": 1521,
      "ined": 1522,
      "enem": 1523,
      "ised": 1524,
      "anda": 1525,
      "methinks": 1526,
      "whe": 1527,
      "forget": 1528,
      "lips": 1529,
      "alth": 1530,
      "rage": 1531,
      "ended": 1532,
      "caster": 1533,
      "hood": 1534,
      "sick": 1535,
      "seek": 1536,
      "elbow": 1537,
      "lancaster": 1538,
      "cloud": 1539,
      "cheer": 1540,
      "posed": 1541,
      "appear": 1542,
      "enemies": 1543,
      "bless": 1544,
      "cred": 1545,
      "dest": 1546,
      "eper": 1547,
      "gard": 1548,
      "gates": 1549,
      "mow": 1550,
      "ose": 1551,
      "ris": 1552,
      "ses": 1553,
      "ump": 1554,
      "orge": 1555,
      "ished": 1556,
      "today": 1557,
      "tower": 1558,
      "ween": 1559,
      "weak": 1560,
      "usur": 1561,
      "ents": 1562,
      "eter": 1563,
      "poss": 1564,
      "consent": 1565,
      "book": 1566,
      "march": 1567,
      "wars": 1568,
      "merry": 1569,
      "cient": 1570,
      "peter": 1571,
      "lookd": 1572,
      "dire": 1573,
      "harm": 1574,
      "ceived": 1575,
      "soldiers": 1576,
      "black": 1577,
      "further": 1578,
      "miranda": 1579,
      "brow": 1580,
      "cure": 1581,
      "dden": 1582,
      "fill": 1583,
      "ile": 1584,
      "len": 1585,
      "mouth": 1586,
      "ni": 1587,
      "pit": 1588,
      "rat": 1589,
      "vio": 1590,
      "win": 1591,
      "bell": 1592,
      "ash": 1593,
      "themselves": 1594,
      "cian": 1595,
      "chee": 1596,
      "gave": 1597,
      "grie": 1598,
      "title": 1599,
      "tonight": 1600,
      "kno": 1601,
      "lst": 1602,
      "sk": 1603,
      "spr": 1604,
      "arch": 1605,
      "often": 1606,
      "eds": 1607,
      "along": 1608,
      "already": 1609,
      "ures": 1610,
      "proceed": 1611,
      "woo": 1612,
      "speech": 1613,
      "bray": 1614,
      "office": 1615,
      "breast": 1616,
      "between": 1617,
      "writ": 1618,
      "banishd": 1619,
      "satis": 1620,
      "tribunes": 1621,
      "ding": 1622,
      "fles": 1623,
      "hur": 1624,
      "nd": 1625,
      "pay": 1626,
      "sly": 1627,
      "issue": 1628,
      "stu": 1629,
      "request": 1630,
      "liant": 1631,
      "liber": 1632,
      "goes": 1633,
      "amp": 1634,
      "feast": 1635,
      "george": 1636,
      "poison": 1637,
      "whilst": 1638,
      "bosom": 1639,
      "marian": 1640,
      "hereford": 1641,
      "iel": 1642,
      "base": 1643,
      "foe": 1644,
      "vict": 1645,
      "thomas": 1646,
      "begin": 1647,
      "deny": 1648,
      "brief": 1649,
      "visit": 1650,
      "spoke": 1651,
      "dangerous": 1652,
      "fetch": 1653,
      "perdita": 1654,
      "stanley": 1655,
      "mowbray": 1656,
      "bs": 1657,
      "fra": 1658,
      "hind": 1659,
      "ima": 1660,
      "kna": 1661,
      "pal": 1662,
      "pite": 1663,
      "scar": 1664,
      "vel": 1665,
      "forward": 1666,
      "sum": 1667,
      "case": 1668,
      "hot": 1669,
      "frown": 1670,
      "thence": 1671,
      "ions": 1672,
      "gree": 1673,
      "green": 1674,
      "voice": 1675,
      "ways": 1676,
      "hadst": 1677,
      "vile": 1678,
      "trou": 1679,
      "heads": 1680,
      "soldier": 1681,
      "wounds": 1682,
      "officer": 1683,
      "possess": 1684,
      "bis": 1685,
      "fres": 1686,
      "gall": 1687,
      "ona": 1688,
      "tot": 1689,
      "town": 1690,
      "ced": 1691,
      "cell": 1692,
      "keeper": 1693,
      "loy": 1694,
      "hip": 1695,
      "sigh": 1696,
      "sible": 1697,
      "wash": 1698,
      "div": 1699,
      "action": 1700,
      "calld": 1701,
      "respect": 1702,
      "presence": 1703,
      "close": 1704,
      "dread": 1705,
      "bride": 1706,
      "witness": 1707,
      "faults": 1708,
      "bitter": 1709,
      "music": 1710,
      "promise": 1711,
      "battle": 1712,
      "quarrel": 1713,
      "suffer": 1714,
      "cup": 1715,
      "dru": 1716,
      "emp": 1717,
      "flow": 1718,
      "ging": 1719,
      "lond": 1720,
      "ost": 1721,
      "rut": 1722,
      "uous": 1723,
      "vest": 1724,
      "ancient": 1725,
      "stain": 1726,
      "measure": 1727,
      "rever": 1728,
      "somer": 1729,
      "col": 1730,
      "gover": 1731,
      "sudden": 1732,
      "seems": 1733,
      "ief": 1734,
      "bawd": 1735,
      "wherein": 1736,
      "lands": 1737,
      "buy": 1738,
      "ppd": 1739,
      "prayers": 1740,
      "wert": 1741,
      "deeds": 1742,
      "mighty": 1743,
      "beggar": 1744,
      "mile": 1745,
      "fully": 1746,
      "chamber": 1747,
      "throne": 1748,
      "lament": 1749,
      "small": 1750,
      "dishon": 1751,
      "success": 1752,
      "mariana": 1753,
      "da": 1754,
      "drun": 1755,
      "five": 1756,
      "kins": 1757,
      "plan": 1758,
      "rd": 1759,
      "swi": 1760,
      "sus": 1761,
      "scorn": 1762,
      "tent": 1763,
      "thither": 1764,
      "tom": 1765,
      "chur": 1766,
      "chang": 1767,
      "almost": 1768,
      "ided": 1769,
      "taen": 1770,
      "tius": 1771,
      "morning": 1772,
      "moon": 1773,
      "mock": 1774,
      "pleas": 1775,
      "earl": 1776,
      "princely": 1777,
      "lawful": 1778,
      "killd": 1779,
      "dark": 1780,
      "valiant": 1781,
      "lartius": 1782,
      "tempt": 1783,
      "london": 1784,
      "somerset": 1785,
      "eat": 1786,
      "eas": 1787,
      "lent": 1788,
      "mpet": 1789,
      "match": 1790,
      "ring": 1791,
      "sland": 1792,
      "inf": 1793,
      "whence": 1794,
      "roman": 1795,
      "lip": 1796,
      "demn": 1797,
      "coward": 1798,
      "dot": 1799,
      "favour": 1800,
      "oney": 1801,
      "til": 1802,
      "condemn": 1803,
      "moved": 1804,
      "six": 1805,
      "tem": 1806,
      "worship": 1807,
      "glad": 1808,
      "disp": 1809,
      "affection": 1810,
      "others": 1811,
      "honours": 1812,
      "appro": 1813,
      "triump": 1814,
      "slave": 1815,
      "slaught": 1816,
      "cliff": 1817,
      "presently": 1818,
      "patient": 1819,
      "subjects": 1820,
      "consul": 1821,
      "cross": 1822,
      "above": 1823,
      "pretty": 1824,
      "antage": 1825,
      "ratcliff": 1826,
      "flesh": 1827,
      "fresh": 1828,
      "triumph": 1829,
      "apo": 1830,
      "eth": 1831,
      "fond": 1832,
      "mill": 1833,
      "oc": 1834,
      "pas": 1835,
      "tut": 1836,
      "wak": 1837,
      "stant": 1838,
      "cher": 1839,
      "forbid": 1840,
      "depart": 1841,
      "alack": 1842,
      "add": 1843,
      "ards": 1844,
      "mali": 1845,
      "among": 1846,
      "willing": 1847,
      "tear": 1848,
      "wood": 1849,
      "mayor": 1850,
      "firm": 1851,
      "cians": 1852,
      "abhor": 1853,
      "least": 1854,
      "grand": 1855,
      "quiet": 1856,
      "deserved": 1857,
      "cursed": 1858,
      "obey": 1859,
      "towards": 1860,
      "whether": 1861,
      "knock": 1862,
      "church": 1863,
      "awhile": 1864,
      "bir": 1865,
      "ease": 1866,
      "hat": 1867,
      "mid": 1868,
      "mild": 1869,
      "pu": 1870,
      "spa": 1871,
      "west": 1872,
      "anon": 1873,
      "ariel": 1874,
      "star": 1875,
      "hap": 1876,
      "beast": 1877,
      "chris": 1878,
      "aside": 1879,
      "living": 1880,
      "rid": 1881,
      "ghost": 1882,
      "hide": 1883,
      "ural": 1884,
      "feit": 1885,
      "conce": 1886,
      "bohe": 1887,
      "teach": 1888,
      "prov": 1889,
      "perform": 1890,
      "wouldst": 1891,
      "warm": 1892,
      "cience": 1893,
      "hearing": 1894,
      "cles": 1895,
      "fied": 1896,
      "gilia": 1897,
      "curtis": 1898,
      "virgilia": 1899,
      "wake": 1900,
      "weeping": 1901,
      "virtuous": 1902,
      "musi": 1903,
      "obedi": 1904,
      "defend": 1905,
      "execution": 1906,
      "dispatch": 1907,
      "fled": 1908,
      "mour": 1909,
      "wench": 1910,
      "year": 1911,
      "inno": 1912,
      "lect": 1913,
      "wild": 1914,
      "behind": 1915,
      "cept": 1916,
      "lot": 1917,
      "sol": 1918,
      "ourselves": 1919,
      "ider": 1920,
      "tail": 1921,
      "ties": 1922,
      "whither": 1923,
      "goodly": 1924,
      "perate": 1925,
      "worst": 1926,
      "greet": 1927,
      "wherefore": 1928,
      "offence": 1929,
      "extre": 1930,
      "join": 1931,
      "greater": 1932,
      "treason": 1933,
      "besides": 1934,
      "ledge": 1935,
      "kindness": 1936,
      "commend": 1937,
      "barn": 1938,
      "gonus": 1939,
      "blows": 1940,
      "quickly": 1941,
      "letters": 1942,
      "antigonus": 1943,
      "drink": 1944,
      "guilty": 1945,
      "ladies": 1946,
      "piece": 1947,
      "embra": 1948,
      "bishop": 1949,
      "bohemi": 1950,
      "cen": 1951,
      "cord": 1952,
      "dle": 1953,
      "dry": 1954,
      "fine": 1955,
      "gir": 1956,
      "moun": 1957,
      "ns": 1958,
      "nam": 1959,
      "rough": 1960,
      "winter": 1961,
      "yond": 1962,
      "zed": 1963,
      "eres": 1964,
      "isure": 1965,
      "stor": 1966,
      "wheres": 1967,
      "leisure": 1968,
      "reign": 1969,
      "note": 1970,
      "sole": 1971,
      "doing": 1972,
      "amen": 1973,
      "few": 1974,
      "neck": 1975,
      "neigh": 1976,
      "rust": 1977,
      "laid": 1978,
      "posit": 1979,
      "sho": 1980,
      "quit": 1981,
      "shed": 1982,
      "woes": 1983,
      "womb": 1984,
      "lust": 1985,
      "truly": 1986,
      "trumpet": 1987,
      "derby": 1988,
      "henrys": 1989,
      "spur": 1990,
      "exeter": 1991,
      "guard": 1992,
      "died": 1993,
      "angry": 1994,
      "fortunes": 1995,
      "longer": 1996,
      "shows": 1997,
      "daughters": 1998,
      "contin": 1999,
      "slew": 2000,
      "needs": 2001,
      "natural": 2002,
      "creat": 2003,
      "englands": 2004,
      "golden": 2005,
      "pedant": 2006,
      "possible": 2007,
      "banishment": 2008,
      "usurp": 2009,
      "birth": 2010,
      "ale": 2011,
      "ather": 2012,
      "cu": 2013,
      "cret": 2014,
      "dge": 2015,
      "dance": 2016,
      "fat": 2017,
      "fing": 2018,
      "fam": 2019,
      "mand": 2020,
      "mut": 2021,
      "ned": 2022,
      "pad": 2023,
      "ror": 2024,
      "yon": 2025,
      "ines": 2026,
      "encounter": 2027,
      "noise": 2028,
      "sever": 2029,
      "seiz": 2030,
      "white": 2031,
      "rew": 2032,
      "remain": 2033,
      "ket": 2034,
      "als": 2035,
      "until": 2036,
      "supp": 2037,
      "tagen": 2038,
      "proclaim": 2039,
      "broad": 2040,
      "fright": 2041,
      "queens": 2042,
      "speaks": 2043,
      "offer": 2044,
      "sport": 2045,
      "bears": 2046,
      "courage": 2047,
      "isabel": 2048,
      "sense": 2049,
      "banished": 2050,
      "sentence": 2051,
      "stood": 2052,
      "choose": 2053,
      "english": 2054,
      "traitors": 2055,
      "knee": 2056,
      "ignor": 2057,
      "conscience": 2058,
      "walk": 2059,
      "clouds": 2060,
      "liberty": 2061,
      "trouble": 2062,
      "dishonour": 2063,
      "plantagen": 2064,
      "bohemia": 2065,
      "padua": 2066,
      "plantagenet": 2067,
      "ald": 2068,
      "bones": 2069,
      "cing": 2070,
      "cru": 2071,
      "cried": 2072,
      "drown": 2073,
      "dred": 2074,
      "evil": 2075,
      "fru": 2076,
      "lend": 2077,
      "ny": 2078,
      "pier": 2079,
      "phy": 2080,
      "rise": 2081,
      "sort": 2082,
      "tar": 2083,
      "ual": 2084,
      "vain": 2085,
      "xi": 2086,
      "zen": 2087,
      "enjoy": 2088,
      "ators": 2089,
      "step": 2090,
      "seven": 2091,
      "secret": 2092,
      "vey": 2093,
      "forgot": 2094,
      "ires": 2095,
      "dog": 2096,
      "kingdom": 2097,
      "fell": 2098,
      "lau": 2099,
      "tic": 2100,
      "proof": 2101,
      "glass": 2102,
      "fold": 2103,
      "page": 2104,
      "despair": 2105,
      "aff": 2106,
      "inted": 2107,
      "lived": 2108,
      "oler": 2109,
      "mothers": 2110,
      "blind": 2111,
      "fellows": 2112,
      "prisoner": 2113,
      "hundred": 2114,
      "blessed": 2115,
      "princes": 2116,
      "victory": 2117,
      "drunk": 2118,
      "swift": 2119,
      "slander": 2120,
      "barnard": 2121,
      "aid": 2122,
      "alive": 2123,
      "big": 2124,
      "grown": 2125,
      "lis": 2126,
      "mod": 2127,
      "mble": 2128,
      "mil": 2129,
      "money": 2130,
      "sy": 2131,
      "sour": 2132,
      "wain": 2133,
      "threat": 2134,
      "stone": 2135,
      "stab": 2136,
      "seat": 2137,
      "reck": 2138,
      "liest": 2139,
      "utter": 2140,
      "kept": 2141,
      "yourselves": 2142,
      "going": 2143,
      "adie": 2144,
      "odd": 2145,
      "shake": 2146,
      "shadow": 2147,
      "herself": 2148,
      "lack": 2149,
      "labour": 2150,
      "quite": 2151,
      "ular": 2152,
      "venge": 2153,
      "knowledge": 2154,
      "glory": 2155,
      "author": 2156,
      "mbling": 2157,
      "ounds": 2158,
      "miss": 2159,
      "guess": 2160,
      "clam": 2161,
      "desperate": 2162,
      "standing": 2163,
      "precious": 2164,
      "condition": 2165,
      "pride": 2166,
      "effect": 2167,
      "custom": 2168,
      "bushy": 2169,
      "struck": 2170,
      "knees": 2171,
      "kneel": 2172,
      "weary": 2173,
      "countrys": 2174,
      "watchman": 2175,
      "twice": 2176,
      "twixt": 2177,
      "wretch": 2178,
      "garden": 2179,
      "rutland": 2180,
      "position": 2181,
      "barnardine": 2182,
      "adieu": 2183,
      "bend": 2184,
      "fought": 2185,
      "gment": 2186,
      "gory": 2187,
      "ker": 2188,
      "kin": 2189,
      "mity": 2190,
      "pun": 2191,
      "pare": 2192,
      "stoo": 2193,
      "samp": 2194,
      "try": 2195,
      "vouch": 2196,
      "ys": 2197,
      "inking": 2198,
      "enforce": 2199,
      "army": 2200,
      "tol": 2201,
      "top": 2202,
      "stars": 2203,
      "hair": 2204,
      "becomes": 2205,
      "ities": 2206,
      "deter": 2207,
      "ads": 2208,
      "allow": 2209,
      "doom": 2210,
      "manner": 2211,
      "table": 2212,
      "contr": 2213,
      "quoth": 2214,
      "cape": 2215,
      "persu": 2216,
      "thereof": 2217,
      "ants": 2218,
      "sail": 2219,
      "knowst": 2220,
      "foes": 2221,
      "mbly": 2222,
      "spent": 2223,
      "guest": 2224,
      "nap": 2225,
      "afford": 2226,
      "calls": 2227,
      "honourable": 2228,
      "prepar": 2229,
      "prepare": 2230,
      "ations": 2231,
      "deadly": 2232,
      "lordship": 2233,
      "gives": 2234,
      "tongues": 2235,
      "braken": 2236,
      "repent": 2237,
      "foolish": 2238,
      "gross": 2239,
      "consider": 2240,
      "promised": 2241,
      "gainst": 2242,
      "wretched": 2243,
      "flower": 2244,
      "dorset": 2245,
      "cheeks": 2246,
      "scarce": 2247,
      "flowers": 2248,
      "laugh": 2249,
      "sampson": 2250,
      "brakenbury": 2251,
      "ama": 2252,
      "avo": 2253,
      "din": 2254,
      "dur": 2255,
      "gg": 2256,
      "gage": 2257,
      "ick": 2258,
      "ler": 2259,
      "nest": 2260,
      "ners": 2261,
      "rrel": 2262,
      "smile": 2263,
      "vate": 2264,
      "wing": 2265,
      "wra": 2266,
      "orious": 2267,
      "arri": 2268,
      "stro": 2269,
      "health": 2270,
      "ref": 2271,
      "chief": 2272,
      "cep": 2273,
      "lic": 2274,
      "ries": 2275,
      "dece": 2276,
      "deput": 2277,
      "demand": 2278,
      "ets": 2279,
      "door": 2280,
      "ury": 2281,
      "making": 2282,
      "convey": 2283,
      "shore": 2284,
      "endure": 2285,
      "whiles": 2286,
      "motion": 2287,
      "froth": 2288,
      "due": 2289,
      "dull": 2290,
      "teen": 2291,
      "mens": 2292,
      "gregory": 2293,
      "ility": 2294,
      "early": 2295,
      "vices": 2296,
      "tyrrel": 2297,
      "deaths": 2298,
      "exc": 2299,
      "month": 2300,
      "dies": 2301,
      "account": 2302,
      "priest": 2303,
      "renown": 2304,
      "carry": 2305,
      "kindred": 2306,
      "commit": 2307,
      "charity": 2308,
      "blush": 2309,
      "subst": 2310,
      "pleased": 2311,
      "wail": 2312,
      "steal": 2313,
      "steel": 2314,
      "stop": 2315,
      "maids": 2316,
      "minister": 2317,
      "wisdom": 2318,
      "dreams": 2319,
      "silence": 2320,
      "entertain": 2321,
      "judge": 2322,
      "humble": 2323,
      "satisfied": 2324,
      "kinsman": 2325,
      "musician": 2326,
      "girl": 2327,
      "cruel": 2328,
      "abroad": 2329,
      "bb": 2330,
      "bright": 2331,
      "bird": 2332,
      "cir": 2333,
      "cun": 2334,
      "clu": 2335,
      "dwell": 2336,
      "dain": 2337,
      "mal": 2338,
      "pes": 2339,
      "sco": 2340,
      "smo": 2341,
      "swords": 2342,
      "scho": 2343,
      "tua": 2344,
      "vie": 2345,
      "went": 2346,
      "thro": 2347,
      "incl": 2348,
      "envy": 2349,
      "revo": 2350,
      "rot": 2351,
      "weigh": 2352,
      "deal": 2353,
      "cock": 2354,
      "alous": 2355,
      "idle": 2356,
      "fain": 2357,
      "taken": 2358,
      "tide": 2359,
      "iful": 2360,
      "shar": 2361,
      "qual": 2362,
      "proper": 2363,
      "therein": 2364,
      "mayst": 2365,
      "rance": 2366,
      "tyrant": 2367,
      "miser": 2368,
      "petition": 2369,
      "county": 2370,
      "acle": 2371,
      "tres": 2372,
      "party": 2373,
      "private": 2374,
      "bids": 2375,
      "trial": 2376,
      "harry": 2377,
      "meaning": 2378,
      "blunt": 2379,
      "chase": 2380,
      "drawn": 2381,
      "crave": 2382,
      "venture": 2383,
      "blame": 2384,
      "honesty": 2385,
      "question": 2386,
      "walls": 2387,
      "judgment": 2388,
      "drop": 2389,
      "volsces": 2390,
      "spring": 2391,
      "imag": 2392,
      "loyal": 2393,
      "divine": 2394,
      "malice": 2395,
      "vengeance": 2396,
      "stoop": 2397,
      "ade": 2398,
      "awake": 2399,
      "bite": 2400,
      "bona": 2401,
      "fan": 2402,
      "mple": 2403,
      "nine": 2404,
      "ome": 2405,
      "round": 2406,
      "wine": 2407,
      "wag": 2408,
      "ering": 2409,
      "eria": 2410,
      "lly": 2411,
      "stones": 2412,
      "meat": 2413,
      "nob": 2414,
      "sell": 2415,
      "seas": 2416,
      "wixt": 2417,
      "belike": 2418,
      "rede": 2419,
      "received": 2420,
      "vell": 2421,
      "chd": 2422,
      "former": 2423,
      "eding": 2424,
      "edom": 2425,
      "ution": 2426,
      "dev": 2427,
      "gown": 2428,
      "always": 2429,
      "shal": 2430,
      "feard": 2431,
      "ident": 2432,
      "faint": 2433,
      "necess": 2434,
      "condu": 2435,
      "shri": 2436,
      "bot": 2437,
      "caius": 2438,
      "dust": 2439,
      "dukes": 2440,
      "tect": 2441,
      "sacred": 2442,
      "iles": 2443,
      "sometime": 2444,
      "cial": 2445,
      "vious": 2446,
      "corse": 2447,
      "tyran": 2448,
      "mistake": 2449,
      "despite": 2450,
      "buried": 2451,
      "counten": 2452,
      "acqu": 2453,
      "preva": 2454,
      "prevent": 2455,
      "corioli": 2456,
      "betwixt": 2457,
      "clock": 2458,
      "tread": 2459,
      "tract": 2460,
      "charged": 2461,
      "blest": 2462,
      "double": 2463,
      "overdone": 2464,
      "patri": 2465,
      "contented": 2466,
      "deserve": 2467,
      "reasons": 2468,
      "valour": 2469,
      "valeria": 2470,
      "touchd": 2471,
      "profess": 2472,
      "humour": 2473,
      "castle": 2474,
      "troth": 2475,
      "prophe": 2476,
      "direct": 2477,
      "brows": 2478,
      "changed": 2479,
      "easy": 2480,
      "occas": 2481,
      "spake": 2482,
      "tailor": 2483,
      "embrace": 2484,
      "fruit": 2485,
      "modest": 2486,
      "excuse": 2487,
      "cat": 2488,
      "dri": 2489,
      "ely": 2490,
      "fes": 2491,
      "fla": 2492,
      "fret": 2493,
      "gif": 2494,
      "ray": 2495,
      "sits": 2496,
      "vish": 2497,
      "wont": 2498,
      "yard": 2499,
      "thunder": 2500,
      "ining": 2501,
      "llen": 2502,
      "noon": 2503,
      "nose": 2504,
      "seal": 2505,
      "reg": 2506,
      "reti": 2507,
      "receive": 2508,
      "ites": 2509,
      "wealth": 2510,
      "del": 2511,
      "deceived": 2512,
      "loath": 2513,
      "hire": 2514,
      "although": 2515,
      "ado": 2516,
      "idings": 2517,
      "mantua": 2518,
      "neg": 2519,
      "rude": 2520,
      "pron": 2521,
      "iff": 2522,
      "conqu": 2523,
      "constant": 2524,
      "shut": 2525,
      "boot": 2526,
      "marshal": 2527,
      "sheep": 2528,
      "percy": 2529,
      "whos": 2530,
      "safet": 2531,
      "broken": 2532,
      "whereof": 2533,
      "plead": 2534,
      "affair": 2535,
      "wicked": 2536,
      "leaves": 2537,
      "plague": 2538,
      "nights": 2539,
      "captain": 2540,
      "resign": 2541,
      "assist": 2542,
      "fiery": 2543,
      "showd": 2544,
      "faced": 2545,
      "understand": 2546,
      "benef": 2547,
      "remedy": 2548,
      "choice": 2549,
      "wrongs": 2550,
      "groom": 2551,
      "silver": 2552,
      "pains": 2553,
      "import": 2554,
      "advance": 2555,
      "resolved": 2556,
      "credit": 2557,
      "stuff": 2558,
      "govern": 2559,
      "abhorson": 2560,
      "innocent": 2561,
      "names": 2562,
      "trumpets": 2563,
      "creature": 2564,
      "fatal": 2565,
      "prepared": 2566,
      "deputy": 2567,
      "view": 2568,
      "occasion": 2569,
      "safety": 2570,
      "ball": 2571,
      "crow": 2572,
      "ded": 2573,
      "ele": 2574,
      "fre": 2575,
      "itol": 2576,
      "jour": 2577,
      "number": 2578,
      "owe": 2579,
      "oking": 2580,
      "ots": 2581,
      "pin": 2582,
      "pis": 2583,
      "pul": 2584,
      "psa": 2585,
      "plot": 2586,
      "ras": 2587,
      "sence": 2588,
      "twel": 2589,
      "tidings": 2590,
      "wings": 2591,
      "thir": 2592,
      "inher": 2593,
      "inous": 2594,
      "inform": 2595,
      "oracle": 2596,
      "eness": 2597,
      "hail": 2598,
      "haps": 2599,
      "seest": 2600,
      "whis": 2601,
      "leep": 2602,
      "ches": 2603,
      "rock": 2604,
      "ross": 2605,
      "weeds": 2606,
      "deb": 2607,
      "delay": 2608,
      "delight": 2609,
      "deposed": 2610,
      "sooth": 2611,
      "hie": 2612,
      "undone": 2613,
      "mamill": 2614,
      "taste": 2615,
      "tive": 2616,
      "conspir": 2617,
      "contract": 2618,
      "ters": 2619,
      "complain": 2620,
      "cali": 2621,
      "host": 2622,
      "mopsa": 2623,
      "sire": 2624,
      "simple": 2625,
      "perceive": 2626,
      "ult": 2627,
      "wore": 2628,
      "aked": 2629,
      "seeing": 2630,
      "ctise": 2631,
      "pawn": 2632,
      "thinkst": 2633,
      "langu": 2634,
      "gentlewoman": 2635,
      "gues": 2636,
      "absence": 2637,
      "joind": 2638,
      "design": 2639,
      "ladys": 2640,
      "accept": 2641,
      "intend": 2642,
      "capitol": 2643,
      "holds": 2644,
      "write": 2645,
      "preser": 2646,
      "treach": 2647,
      "cares": 2648,
      "senate": 2649,
      "senators": 2650,
      "fares": 2651,
      "keeps": 2652,
      "tedious": 2653,
      "pursu": 2654,
      "sorry": 2655,
      "jealous": 2656,
      "borne": 2657,
      "womans": 2658,
      "sorrows": 2659,
      "bark": 2660,
      "fools": 2661,
      "spirits": 2662,
      "passing": 2663,
      "vised": 2664,
      "seeming": 2665,
      "fury": 2666,
      "hung": 2667,
      "supper": 2668,
      "appare": 2669,
      "resolve": 2670,
      "deliverd": 2671,
      "plant": 2672,
      "practise": 2673,
      "destroy": 2674,
      "violent": 2675,
      "cheek": 2676,
      "temper": 2677,
      "approach": 2678,
      "apollo": 2679,
      "christi": 2680,
      "obedience": 2681,
      "yonder": 2682,
      "seize": 2683,
      "ignorant": 2684,
      "authority": 2685,
      "wrath": 2686,
      "circ": 2687,
      "school": 2688,
      "rotten": 2689,
      "countenance": 2690,
      "pronoun": 2691,
      "twelve": 2692,
      "mamillius": 2693,
      "ax": 2694,
      "aed": 2695,
      "bd": 2696,
      "bran": 2697,
      "bond": 2698,
      "cr": 2699,
      "ek": 2700,
      "fu": 2701,
      "fas": 2702,
      "fif": 2703,
      "flies": 2704,
      "hit": 2705,
      "hors": 2706,
      "ial": 2707,
      "list": 2708,
      "mere": 2709,
      "mers": 2710,
      "rate": 2711,
      "rash": 2712,
      "sme": 2713,
      "sli": 2714,
      "sday": 2715,
      "scep": 2716,
      "tur": 2717,
      "tune": 2718,
      "umb": 2719,
      "van": 2720,
      "vantage": 2721,
      "wand": 2722,
      "wof": 2723,
      "wond": 2724,
      "thur": 2725,
      "thrust": 2726,
      "ortion": 2727,
      "envious": 2728,
      "aring": 2729,
      "esy": 2730,
      "stat": 2731,
      "stud": 2732,
      "nobles": 2733,
      "lean": 2734,
      "wives": 2735,
      "beloved": 2736,
      "reward": 2737,
      "ited": 2738,
      "vex": 2739,
      "chide": 2740,
      "root": 2741,
      "forbear": 2742,
      "asp": 2743,
      "asleep": 2744,
      "cease": 2745,
      "ldom": 2746,
      "weap": 2747,
      "utes": 2748,
      "dew": 2749,
      "lod": 2750,
      "looking": 2751,
      "withdraw": 2752,
      "ety": 2753,
      "verona": 2754,
      "ckle": 2755,
      "ney": 2756,
      "rupt": 2757,
      "ify": 2758,
      "poster": 2759,
      "qua": 2760,
      "comest": 2761,
      "boats": 2762,
      "hollow": 2763,
      "teeth": 2764,
      "protect": 2765,
      "perfect": 2766,
      "perhaps": 2767,
      "whole": 2768,
      "outward": 2769,
      "sage": 2770,
      "brook": 2771,
      "wot": 2772,
      "ages": 2773,
      "sometimes": 2774,
      "shouldst": 2775,
      "disgrace": 2776,
      "discover": 2777,
      "mission": 2778,
      "offend": 2779,
      "serves": 2780,
      "spare": 2781,
      "express": 2782,
      "excell": 2783,
      "mony": 2784,
      "dig": 2785,
      "access": 2786,
      "prayer": 2787,
      "parts": 2788,
      "bearing": 2789,
      "garments": 2790,
      "opin": 2791,
      "rench": 2792,
      "begins": 2793,
      "crowns": 2794,
      "farther": 2795,
      "curr": 2796,
      "curst": 2797,
      "happiness": 2798,
      "boys": 2799,
      "follows": 2800,
      "followers": 2801,
      "husbands": 2802,
      "turns": 2803,
      "rememb": 2804,
      "witch": 2805,
      "burthen": 2806,
      "dares": 2807,
      "darest": 2808,
      "hanging": 2809,
      "spoken": 2810,
      "wanton": 2811,
      "lamb": 2812,
      "accuse": 2813,
      "instruct": 2814,
      "advise": 2815,
      "advantage": 2816,
      "damned": 2817,
      "troop": 2818,
      "guilt": 2819,
      "humbly": 2820,
      "cries": 2821,
      "thrive": 2822,
      "hurt": 2823,
      "knave": 2824,
      "summer": 2825,
      "sighs": 2826,
      "dreadful": 2827,
      "drum": 2828,
      "colour": 2829,
      "pub": 2830,
      "neighbour": 2831,
      "finger": 2832,
      "cunning": 2833,
      "throat": 2834,
      "devise": 2835,
      "conduct": 2836,
      "conquer": 2837,
      "affairs": 2838,
      "benefit": 2839,
      "pisa": 2840,
      "rascal": 2841,
      "christian": 2842,
      "fashi": 2843,
      "woful": 2844,
      "thursday": 2845,
      "bas": 2846,
      "bare": 2847,
      "bours": 2848,
      "catch": 2849,
      "fy": 2850,
      "flight": 2851,
      "hunt": 2852,
      "iest": 2853,
      "ims": 2854,
      "iled": 2855,
      "jury": 2856,
      "kest": 2857,
      "line": 2858,
      "pest": 2859,
      "pic": 2860,
      "rt": 2861,
      "san": 2862,
      "sway": 2863,
      "sins": 2864,
      "slow": 2865,
      "south": 2866,
      "ude": 2867,
      "thas": 2868,
      "ances": 2869,
      "inst": 2870,
      "inju": 2871,
      "infect": 2872,
      "habit": 2873,
      "legs": 2874,
      "wits": 2875,
      "beheld": 2876,
      "beyond": 2877,
      "rey": 2878,
      "real": 2879,
      "rema": 2880,
      "repair": 2881,
      "forgive": 2882,
      "forsworn": 2883,
      "weight": 2884,
      "wept": 2885,
      "ows": 2886,
      "alter": 2887,
      "adventure": 2888,
      "untime": 2889,
      "raven": 2890,
      "kingly": 2891,
      "feed": 2892,
      "rup": 2893,
      "sured": 2894,
      "taking": 2895,
      "takes": 2896,
      "iffer": 2897,
      "conclu": 2898,
      "shr": 2899,
      "quench": 2900,
      "morn": 2901,
      "comfor": 2902,
      "arts": 2903,
      "goodness": 2904,
      "ouses": 2905,
      "sici": 2906,
      "protest": 2907,
      "peril": 2908,
      "perpet": 2909,
      "hereafter": 2910,
      "babe": 2911,
      "pack": 2912,
      "paper": 2913,
      "els": 2914,
      "disdain": 2915,
      "spend": 2916,
      "exile": 2917,
      "romeos": 2918,
      "affect": 2919,
      "accus": 2920,
      "fairly": 2921,
      "warwicks": 2922,
      "tled": 2923,
      "prize": 2924,
      "appoint": 2925,
      "calm": 2926,
      "giving": 2927,
      "undertake": 2928,
      "denied": 2929,
      "clear": 2930,
      "compan": 2931,
      "confer": 2932,
      "chair": 2933,
      "balthas": 2934,
      "quire": 2935,
      "passd": 2936,
      "deserves": 2937,
      "commanded": 2938,
      "bastard": 2939,
      "large": 2940,
      "forced": 2941,
      "wounded": 2942,
      "courtesy": 2943,
      "accord": 2944,
      "wedding": 2945,
      "penit": 2946,
      "human": 2947,
      "praise": 2948,
      "belly": 2949,
      "palace": 2950,
      "piteous": 2951,
      "empty": 2952,
      "employ": 2953,
      "colours": 2954,
      "suspect": 2955,
      "pleasant": 2956,
      "slaughter": 2957,
      "slaughterd": 2958,
      "performd": 2959,
      "storm": 2960,
      "solemn": 2961,
      "continue": 2962,
      "several": 2963,
      "contrary": 2964,
      "dinner": 2965,
      "miserable": 2966,
      "circum": 2967,
      "boatswain": 2968,
      "opinion": 2969,
      "untimely": 2970,
      "balthasar": 2971,
      "aking": 2972,
      "agree": 2973,
      "bon": 2974,
      "cate": 2975,
      "dag": 2976,
      "fle": 2977,
      "furn": 2978,
      "ferd": 2979,
      "french": 2980,
      "gate": 2981,
      "gers": 2982,
      "houses": 2983,
      "ience": 2984,
      "kedom": 2985,
      "lp": 2986,
      "mend": 2987,
      "naked": 2988,
      "omen": 2989,
      "oclock": 2990,
      "pil": 2991,
      "sink": 2992,
      "swall": 2993,
      "tu": 2994,
      "zard": 2995,
      "inand": 2996,
      "intell": 2997,
      "incre": 2998,
      "ores": 2999,
      "ences": 3000,
      "isbury": 3001,
      "ating": 3002,
      "tomb": 3003,
      "story": 3004,
      "heed": 3005,
      "rebe": 3006,
      "repe": 3007,
      "rebell": 3008,
      "ital": 3009,
      "itude": 3010,
      "choler": 3011,
      "rose": 3012,
      "room": 3013,
      "cei": 3014,
      "lion": 3015,
      "ride": 3016,
      "rious": 3017,
      "dep": 3018,
      "devo": 3019,
      "witherd": 3020,
      "thourt": 3021,
      "hid": 3022,
      "advers": 3023,
      "advised": 3024,
      "unknown": 3025,
      "unnatural": 3026,
      "urge": 3027,
      "urance": 3028,
      "rain": 3029,
      "fame": 3030,
      "fail": 3031,
      "faces": 3032,
      "ruin": 3033,
      "rule": 3034,
      "taught": 3035,
      "terror": 3036,
      "shun": 3037,
      "dukedom": 3038,
      "market": 3039,
      "wholes": 3040,
      "theirs": 3041,
      "aged": 3042,
      "bagot": 3043,
      "folly": 3044,
      "oked": 3045,
      "richards": 3046,
      "pace": 3047,
      "vide": 3048,
      "core": 3049,
      "disposition": 3050,
      "misery": 3051,
      "services": 3052,
      "expect": 3053,
      "dign": 3054,
      "bred": 3055,
      "build": 3056,
      "pping": 3057,
      "lting": 3058,
      "called": 3059,
      "prey": 3060,
      "intent": 3061,
      "assurance": 3062,
      "fig": 3063,
      "fix": 3064,
      "partic": 3065,
      "imprison": 3066,
      "tremble": 3067,
      "trick": 3068,
      "camest": 3069,
      "crownd": 3070,
      "kindly": 3071,
      "joys": 3072,
      "joyful": 3073,
      "curses": 3074,
      "cleomen": 3075,
      "needful": 3076,
      "waking": 3077,
      "bodies": 3078,
      "ships": 3079,
      "umble": 3080,
      "maiden": 3081,
      "wrongd": 3082,
      "playd": 3083,
      "scene": 3084,
      "winds": 3085,
      "waters": 3086,
      "hunts": 3087,
      "titus": 3088,
      "painted": 3089,
      "appre": 3090,
      "grows": 3091,
      "devils": 3092,
      "profan": 3093,
      "leads": 3094,
      "counterfeit": 3095,
      "dress": 3096,
      "feeling": 3097,
      "hopes": 3098,
      "fourth": 3099,
      "salisbury": 3100,
      "shortly": 3101,
      "torment": 3102,
      "princess": 3103,
      "drums": 3104,
      "reverend": 3105,
      "suspic": 3106,
      "condemnd": 3107,
      "willingly": 3108,
      "hatred": 3109,
      "haply": 3110,
      "affli": 3111,
      "threaten": 3112,
      "determin": 3113,
      "durst": 3114,
      "renowned": 3115,
      "sharp": 3116,
      "government": 3117,
      "caliban": 3118,
      "language": 3119,
      "apparel": 3120,
      "horses": 3121,
      "study": 3122,
      "excellent": 3123,
      "remembrance": 3124,
      "public": 3125,
      "remains": 3126,
      "ferdinand": 3127,
      "cleomenes": 3128,
      "suspicion": 3129,
      "alike": 3130,
      "aim": 3131,
      "aunt": 3132,
      "cend": 3133,
      "cise": 3134,
      "ders": 3135,
      "eag": 3136,
      "east": 3137,
      "ffi": 3138,
      "gthen": 3139,
      "ient": 3140,
      "kn": 3141,
      "kni": 3142,
      "lts": 3143,
      "loud": 3144,
      "net": 3145,
      "nought": 3146,
      "ointed": 3147,
      "port": 3148,
      "purse": 3149,
      "ron": 3150,
      "rous": 3151,
      "swell": 3152,
      "sain": 3153,
      "slay": 3154,
      "slip": 3155,
      "tin": 3156,
      "twill": 3157,
      "tort": 3158,
      "tles": 3159,
      "uary": 3160,
      "vours": 3161,
      "wreck": 3162,
      "thief": 3163,
      "erous": 3164,
      "instant": 3165,
      "orous": 3166,
      "enmity": 3167,
      "arent": 3168,
      "aries": 3169,
      "isle": 3170,
      "stret": 3171,
      "store": 3172,
      "youre": 3173,
      "meant": 3174,
      "medi": 3175,
      "methought": 3176,
      "sequ": 3177,
      "beard": 3178,
      "below": 3179,
      "behalf": 3180,
      "rogue": 3181,
      "liar": 3182,
      "lift": 3183,
      "weather": 3184,
      "usion": 3185,
      "rian": 3186,
      "degree": 3187,
      "lower": 3188,
      "soever": 3189,
      "hill": 3190,
      "aded": 3191,
      "adver": 3192,
      "butcher": 3193,
      "unts": 3194,
      "unhappy": 3195,
      "estate": 3196,
      "raise": 3197,
      "mage": 3198,
      "ament": 3199,
      "ambit": 3200,
      "shape": 3201,
      "idence": 3202,
      "willough": 3203,
      "faction": 3204,
      "manners": 3205,
      "taind": 3206,
      "tial": 3207,
      "tily": 3208,
      "contempt": 3209,
      "terms": 3210,
      "boar": 3211,
      "mockd": 3212,
      "sirs": 3213,
      "venom": 3214,
      "sayst": 3215,
      "saying": 3216,
      "selfsame": 3217,
      "greed": 3218,
      "ilt": 3219,
      "glorious": 3220,
      "likely": 3221,
      "special": 3222,
      "graves": 3223,
      "earnest": 3224,
      "merit": 3225,
      "merri": 3226,
      "disper": 3227,
      "brings": 3228,
      "gently": 3229,
      "served": 3230,
      "spite": 3231,
      "monstr": 3232,
      "absent": 3233,
      "absol": 3234,
      "gloucesters": 3235,
      "desires": 3236,
      "accursed": 3237,
      "friendly": 3238,
      "privile": 3239,
      "longs": 3240,
      "apt": 3241,
      "puts": 3242,
      "clothe": 3243,
      "trees": 3244,
      "trade": 3245,
      "begun": 3246,
      "powers": 3247,
      "brain": 3248,
      "slept": 3249,
      "virg": 3250,
      "happily": 3251,
      "finds": 3252,
      "wait": 3253,
      "jewel": 3254,
      "lasting": 3255,
      "prosperous": 3256,
      "hateful": 3257,
      "sends": 3258,
      "tybalts": 3259,
      "armd": 3260,
      "armour": 3261,
      "revenged": 3262,
      "shepherds": 3263,
      "wants": 3264,
      "freely": 3265,
      "uteous": 3266,
      "hardly": 3267,
      "smiles": 3268,
      "surrey": 3269,
      "profit": 3270,
      "instrument": 3271,
      "instruction": 3272,
      "instruments": 3273,
      "pressd": 3274,
      "resolution": 3275,
      "granted": 3276,
      "drops": 3277,
      "volsce": 3278,
      "thrice": 3279,
      "proportion": 3280,
      "dorcas": 3281,
      "viol": 3282,
      "griev": 3283,
      "sky": 3284,
      "frame": 3285,
      "knaves": 3286,
      "respected": 3287,
      "staind": 3288,
      "pleasing": 3289,
      "affections": 3290,
      "passion": 3291,
      "passage": 3292,
      "waked": 3293,
      "provided": 3294,
      "obedient": 3295,
      "mourn": 3296,
      "winters": 3297,
      "lusty": 3298,
      "famous": 3299,
      "odds": 3300,
      "naples": 3301,
      "amazed": 3302,
      "avoid": 3303,
      "committed": 3304,
      "scope": 3305,
      "smooth": 3306,
      "acquaint": 3307,
      "whisper": 3308,
      "debt": 3309,
      "treacherous": 3310,
      "sanct": 3311,
      "realm": 3312,
      "sicilia": 3313,
      "perpetual": 3314,
      "according": 3315,
      "swallow": 3316,
      "increase": 3317,
      "wholesome": 3318,
      "particular": 3319,
      "knife": 3320,
      "willoughby": 3321,
      "monstrous": 3322,
      "aw": 3323,
      "bill": 3324,
      "boun": 3325,
      "cere": 3326,
      "chast": 3327,
      "cket": 3328,
      "equal": 3329,
      "fun": 3330,
      "fish": 3331,
      "gy": 3332,
      "jack": 3333,
      "knot": 3334,
      "lour": 3335,
      "lun": 3336,
      "nal": 3337,
      "oak": 3338,
      "ph": 3339,
      "por": 3340,
      "pent": 3341,
      "phi": 3342,
      "plu": 3343,
      "pound": 3344,
      "pure": 3345,
      "ress": 3346,
      "rend": 3347,
      "tory": 3348,
      "tush": 3349,
      "ued": 3350,
      "thre": 3351,
      "thread": 3352,
      "thinking": 3353,
      "anointed": 3354,
      "ints": 3355,
      "infer": 3356,
      "argu": 3357,
      "issu": 3358,
      "onso": 3359,
      "atic": 3360,
      "lld": 3361,
      "stamp": 3362,
      "nobl": 3363,
      "sets": 3364,
      "wifes": 3365,
      "bethink": 3366,
      "remove": 3367,
      "regard": 3368,
      "veins": 3369,
      "chers": 3370,
      "romans": 3371,
      "rosal": 3372,
      "forswear": 3373,
      "assured": 3374,
      "eder": 3375,
      "limb": 3376,
      "limit": 3377,
      "iron": 3378,
      "lots": 3379,
      "cost": 3380,
      "alonso": 3381,
      "ades": 3382,
      "advice": 3383,
      "admit": 3384,
      "adrian": 3385,
      "unjust": 3386,
      "uncles": 3387,
      "dogs": 3388,
      "urged": 3389,
      "raised": 3390,
      "ams": 3391,
      "peers": 3392,
      "peop": 3393,
      "feather": 3394,
      "herald": 3395,
      "manif": 3396,
      "ruth": 3397,
      "tap": 3398,
      "tame": 3399,
      "points": 3400,
      "shine": 3401,
      "shrew": 3402,
      "whip": 3403,
      "commission": 3404,
      "boots": 3405,
      "mult": 3406,
      "perish": 3407,
      "perforce": 3408,
      "theyll": 3409,
      "outs": 3410,
      "lovely": 3411,
      "warlike": 3412,
      "bade": 3413,
      "fires": 3414,
      "plex": 3415,
      "graces": 3416,
      "paid": 3417,
      "corre": 3418,
      "disse": 3419,
      "blown": 3420,
      "hasty": 3421,
      "mistrust": 3422,
      "offerd": 3423,
      "offended": 3424,
      "tells": 3425,
      "lance": 3426,
      "spit": 3427,
      "exam": 3428,
      "heap": 3429,
      "heavi": 3430,
      "jove": 3431,
      "fairer": 3432,
      "stern": 3433,
      "stery": 3434,
      "honourd": 3435,
      "fears": 3436,
      "greatest": 3437,
      "partly": 3438,
      "wrought": 3439,
      "oppos": 3440,
      "parli": 3441,
      "worlds": 3442,
      "restra": 3443,
      "achie": 3444,
      "gaoler": 3445,
      "carried": 3446,
      "flour": 3447,
      "braw": 3448,
      "contro": 3449,
      "slaves": 3450,
      "afternoon": 3451,
      "forthwith": 3452,
      "cousins": 3453,
      "pomfret": 3454,
      "servants": 3455,
      "meeting": 3456,
      "soundly": 3457,
      "bodys": 3458,
      "ireland": 3459,
      "talkd": 3460,
      "virtues": 3461,
      "hanged": 3462,
      "desert": 3463,
      "vault": 3464,
      "villains": 3465,
      "groan": 3466,
      "groans": 3467,
      "lark": 3468,
      "plainly": 3469,
      "silent": 3470,
      "suppose": 3471,
      "supposed": 3472,
      "apparent": 3473,
      "heirs": 3474,
      "dying": 3475,
      "accused": 3476,
      "pluckd": 3477,
      "elder": 3478,
      "waste": 3479,
      "aboard": 3480,
      "pieces": 3481,
      "vows": 3482,
      "streets": 3483,
      "sickness": 3484,
      "grieve": 3485,
      "reverence": 3486,
      "daily": 3487,
      "amongst": 3488,
      "conceit": 3489,
      "tarry": 3490,
      "stabbd": 3491,
      "punish": 3492,
      "arrived": 3493,
      "stroke": 3494,
      "deceit": 3495,
      "imagine": 3496,
      "nobly": 3497,
      "patricians": 3498,
      "gift": 3499,
      "retire": 3500,
      "neglect": 3501,
      "pronounce": 3502,
      "aedile": 3503,
      "wondrous": 3504,
      "current": 3505,
      "dagger": 3506,
      "marketplace": 3507,
      "figure": 3508,
      "imprisonment": 3509,
      "huntsman": 3510,
      "grievous": 3511,
      "sanctuary": 3512,
      "peoples": 3513,
      "ago": 3514,
      "cou": 3515,
      "cis": 3516,
      "cti": 3517,
      "ds": 3518,
      "differ": 3519,
      "event": 3520,
      "gam": 3521,
      "gic": 3522,
      "iance": 3523,
      "iety": 3524,
      "kd": 3525,
      "knight": 3526,
      "oke": 3527,
      "pup": 3528,
      "path": 3529,
      "pau": 3530,
      "rare": 3531,
      "snow": 3532,
      "swo": 3533,
      "scape": 3534,
      "tun": 3535,
      "tall": 3536,
      "task": 3537,
      "var": 3538,
      "vau": 3539,
      "wishd": 3540,
      "yoke": 3541,
      "zwater": 3542,
      "thie": 3543,
      "err": 3544,
      "erce": 3545,
      "iny": 3546,
      "ination": 3547,
      "incen": 3548,
      "ories": 3549,
      "enant": 3550,
      "enna": 3551,
      "arise": 3552,
      "island": 3553,
      "ative": 3554,
      "attempt": 3555,
      "sting": 3556,
      "stout": 3557,
      "melan": 3558,
      "havi": 3559,
      "sees": 3560,
      "season": 3561,
      "secure": 3562,
      "seldom": 3563,
      "whit": 3564,
      "leag": 3565,
      "wide": 3566,
      "begu": 3567,
      "betr": 3568,
      "betimes": 3569,
      "recon": 3570,
      "remor": 3571,
      "rejo": 3572,
      "reput": 3573,
      "rewd": 3574,
      "record": 3575,
      "recei": 3576,
      "vet": 3577,
      "rob": 3578,
      "forfeit": 3579,
      "assure": 3580,
      "utenant": 3581,
      "key": 3582,
      "keley": 3583,
      "uses": 3584,
      "ripe": 3585,
      "deck": 3586,
      "decl": 3587,
      "deaf": 3588,
      "detest": 3589,
      "ghan": 3590,
      "enterd": 3591,
      "hic": 3592,
      "unfold": 3593,
      "alls": 3594,
      "alliance": 3595,
      "lying": 3596,
      "rail": 3597,
      "amity": 3598,
      "fee": 3599,
      "feet": 3600,
      "willt": 3601,
      "hers": 3602,
      "fact": 3603,
      "ruled": 3604,
      "suffi": 3605,
      "lace": 3606,
      "tains": 3607,
      "tired": 3608,
      "posing": 3609,
      "conju": 3610,
      "concer": 3611,
      "mory": 3612,
      "complex": 3613,
      "caes": 3614,
      "capa": 3615,
      "caught": 3616,
      "holp": 3617,
      "froward": 3618,
      "shell": 3619,
      "teous": 3620,
      "iling": 3621,
      "gling": 3622,
      "babes": 3623,
      "food": 3624,
      "vessel": 3625,
      "shoulder": 3626,
      "muster": 3627,
      "civil": 3628,
      "vienna": 3629,
      "dismiss": 3630,
      "petite": 3631,
      "spy": 3632,
      "spar": 3633,
      "spread": 3634,
      "exer": 3635,
      "exchange": 3636,
      "exton": 3637,
      "hearted": 3638,
      "monu": 3639,
      "ably": 3640,
      "abide": 3641,
      "lesser": 3642,
      "joint": 3643,
      "counc": 3644,
      "fairest": 3645,
      "newly": 3646,
      "lieutenant": 3647,
      "places": 3648,
      "parting": 3649,
      "parted": 3650,
      "wrink": 3651,
      "appetite": 3652,
      "impossible": 3653,
      "treasure": 3654,
      "rights": 3655,
      "tribut": 3656,
      "ullus": 3657,
      "began": 3658,
      "carlis": 3659,
      "grim": 3660,
      "charac": 3661,
      "brace": 3662,
      "younger": 3663,
      "purchase": 3664,
      "sore": 3665,
      "powerful": 3666,
      "eming": 3667,
      "native": 3668,
      "followd": 3669,
      "stead": 3670,
      "steeds": 3671,
      "bore": 3672,
      "stoma": 3673,
      "stoppd": 3674,
      "shield": 3675,
      "strive": 3676,
      "choly": 3677,
      "weeps": 3678,
      "barren": 3679,
      "griefs": 3680,
      "craft": 3681,
      "faithful": 3682,
      "falsehood": 3683,
      "scro": 3684,
      "berkeley": 3685,
      "surely": 3686,
      "sovereignty": 3687,
      "twain": 3688,
      "commons": 3689,
      "yielded": 3690,
      "tempest": 3691,
      "fitzwater": 3692,
      "single": 3693,
      "oaths": 3694,
      "consort": 3695,
      "markd": 3696,
      "defence": 3697,
      "beholding": 3698,
      "accident": 3699,
      "maintain": 3700,
      "pression": 3701,
      "salt": 3702,
      "flood": 3703,
      "breathed": 3704,
      "weakness": 3705,
      "books": 3706,
      "direction": 3707,
      "length": 3708,
      "mouths": 3709,
      "wooing": 3710,
      "satisfy": 3711,
      "image": 3712,
      "possessd": 3713,
      "gallant": 3714,
      "governd": 3715,
      "occup": 3716,
      "wakes": 3717,
      "grandam": 3718,
      "beasts": 3719,
      "cords": 3720,
      "neighbours": 3721,
      "supply": 3722,
      "pierce": 3723,
      "milan": 3724,
      "persuade": 3725,
      "refuse": 3726,
      "substit": 3727,
      "entertainment": 3728,
      "revolt": 3729,
      "fancy": 3730,
      "tyranny": 3731,
      "regal": 3732,
      "ballad": 3733,
      "journey": 3734,
      "inherit": 3735,
      "conspirator": 3736,
      "smell": 3737,
      "protector": 3738,
      "fashion": 3739,
      "appointed": 3740,
      "conference": 3741,
      "penitent": 3742,
      "devotion": 3743,
      "dignity": 3744,
      "determined": 3745,
      "absolute": 3746,
      "virgin": 3747,
      "rosaline": 3748,
      "manifest": 3749,
      "parliament": 3750,
      "vaughan": 3751,
      "melancholy": 3752,
      "havior": 3753,
      "betray": 3754,
      "reconci": 3755,
      "carlisle": 3756,
      "bay": 3757,
      "bere": 3758,
      "bru": 3759,
      "bble": 3760,
      "bag": 3761,
      "blu": 3762,
      "bation": 3763,
      "coff": 3764,
      "cue": 3765,
      "chaste": 3766,
      "ea": 3767,
      "een": 3768,
      "eve": 3769,
      "emi": 3770,
      "fest": 3771,
      "fil": 3772,
      "fts": 3773,
      "fits": 3774,
      "gun": 3775,
      "hated": 3776,
      "iam": 3777,
      "iment": 3778,
      "jes": 3779,
      "ln": 3780,
      "lor": 3781,
      "lat": 3782,
      "lur": 3783,
      "lous": 3784,
      "lves": 3785,
      "nar": 3786,
      "nes": 3787,
      "ope": 3788,
      "ping": 3789,
      "pill": 3790,
      "pho": 3791,
      "paint": 3792,
      "rus": 3793,
      "ratch": 3794,
      "sca": 3795,
      "song": 3796,
      "slu": 3797,
      "sple": 3798,
      "scold": 3799,
      "swain": 3800,
      "swore": 3801,
      "tas": 3802,
      "tullus": 3803,
      "wan": 3804,
      "wink": 3805,
      "thick": 3806,
      "anch": 3807,
      "inlaw": 3808,
      "infection": 3809,
      "thecar": 3810,
      "ency": 3811,
      "arti": 3812,
      "ises": 3813,
      "ony": 3814,
      "onation": 3815,
      "toad": 3816,
      "sty": 3817,
      "stumble": 3818,
      "yould": 3819,
      "memory": 3820,
      "nod": 3821,
      "hag": 3822,
      "hall": 3823,
      "sey": 3824,
      "sepul": 3825,
      "wipe": 3826,
      "heat": 3827,
      "reap": 3828,
      "reach": 3829,
      "repose": 3830,
      "removed": 3831,
      "roar": 3832,
      "mystery": 3833,
      "asse": 3834,
      "cel": 3835,
      "edge": 3836,
      "lier": 3837,
      "liken": 3838,
      "iring": 3839,
      "weal": 3840,
      "notice": 3841,
      "dec": 3842,
      "load": 3843,
      "lovers": 3844,
      "lovest": 3845,
      "soci": 3846,
      "soms": 3847,
      "coat": 3848,
      "goose": 3849,
      "alms": 3850,
      "uns": 3851,
      "estim": 3852,
      "dove": 3853,
      "doms": 3854,
      "male": 3855,
      "whateer": 3856,
      "pee": 3857,
      "verily": 3858,
      "illy": 3859,
      "shapes": 3860,
      "felt": 3861,
      "feign": 3862,
      "wills": 3863,
      "william": 3864,
      "fawn": 3865,
      "manage": 3866,
      "suits": 3867,
      "sullen": 3868,
      "tainted": 3869,
      "tier": 3870,
      "tiest": 3871,
      "ified": 3872,
      "pot": 3873,
      "pomp": 3874,
      "conceive": 3875,
      "confirm": 3876,
      "shop": 3877,
      "shot": 3878,
      "shines": 3879,
      "shrewd": 3880,
      "comb": 3881,
      "mood": 3882,
      "moves": 3883,
      "duce": 3884,
      "marin": 3885,
      "marks": 3886,
      "proclam": 3887,
      "thereby": 3888,
      "moreland": 3889,
      "ulate": 3890,
      "blem": 3891,
      "knowing": 3892,
      "wolf": 3893,
      "warri": 3894,
      "whereto": 3895,
      "foreign": 3896,
      "somewhat": 3897,
      "cies": 3898,
      "vied": 3899,
      "tooth": 3900,
      "corrupt": 3901,
      "disgu": 3902,
      "disease": 3903,
      "dissol": 3904,
      "dismal": 3905,
      "brand": 3906,
      "brit": 3907,
      "block": 3908,
      "speakst": 3909,
      "mischance": 3910,
      "except": 3911,
      "heartily": 3912,
      "abused": 3913,
      "dim": 3914,
      "jot": 3915,
      "desp": 3916,
      "descent": 3917,
      "buz": 3918,
      "angel": 3919,
      "greatness": 3920,
      "trun": 3921,
      "sweeter": 3922,
      "heavenly": 3923,
      "garland": 3924,
      "redress": 3925,
      "enses": 3926,
      "settled": 3927,
      "holding": 3928,
      "fierce": 3929,
      "graced": 3930,
      "grat": 3931,
      "gress": 3932,
      "stays": 3933,
      "imble": 3934,
      "trembling": 3935,
      "household": 3936,
      "gaze": 3937,
      "beget": 3938,
      "atterd": 3939,
      "harsh": 3940,
      "dearest": 3941,
      "dearly": 3942,
      "ival": 3943,
      "bank": 3944,
      "youngest": 3945,
      "subtle": 3946,
      "laws": 3947,
      "bush": 3948,
      "compass": 3949,
      "natures": 3950,
      "minds": 3951,
      "throng": 3952,
      "dowry": 3953,
      "answerd": 3954,
      "burst": 3955,
      "craves": 3956,
      "policy": 3957,
      "thankful": 3958,
      "sleeping": 3959,
      "scand": 3960,
      "scratch": 3961,
      "hangs": 3962,
      "visage": 3963,
      "seemd": 3964,
      "careless": 3965,
      "sovereigns": 3966,
      "countrymen": 3967,
      "wanting": 3968,
      "windows": 3969,
      "stranger": 3970,
      "bastards": 3971,
      "seald": 3972,
      "yields": 3973,
      "beaut": 3974,
      "beauteous": 3975,
      "appeal": 3976,
      "trusty": 3977,
      "mirth": 3978,
      "widows": 3979,
      "sights": 3980,
      "suitor": 3981,
      "suitors": 3982,
      "impat": 3983,
      "boldly": 3984,
      "growing": 3985,
      "stronger": 3986,
      "execute": 3987,
      "executed": 3988,
      "burnt": 3989,
      "burning": 3990,
      "fourteen": 3991,
      "succeed": 3992,
      "object": 3993,
      "strew": 3994,
      "cheerly": 3995,
      "filld": 3996,
      "pitch": 3997,
      "pitiful": 3998,
      "writing": 3999,
      "frail": 4000,
      "summers": 4001,
      "frowns": 4002,
      "washd": 4003,
      "actions": 4004,
      "bridegroom": 4005,
      "beggars": 4006,
      "changing": 4007,
      "infant": 4008,
      "triumphant": 4009,
      "westmoreland": 4010,
      "executioner": 4011,
      "extremity": 4012,
      "joints": 4013,
      "mount": 4014,
      "proclaimd": 4015,
      "ignorance": 4016,
      "dishonourd": 4017,
      "physi": 4018,
      "stephen": 4019,
      "bigger": 4020,
      "shadows": 4021,
      "vouchsafe": 4022,
      "determine": 4023,
      "affords": 4024,
      "avoided": 4025,
      "strokes": 4026,
      "birds": 4027,
      "trespass": 4028,
      "wager": 4029,
      "redeem": 4030,
      "necessity": 4031,
      "tyrann": 4032,
      "modesty": 4033,
      "eleven": 4034,
      "thirty": 4035,
      "hungry": 4036,
      "sceptre": 4037,
      "shroud": 4038,
      "rebellion": 4039,
      "italy": 4040,
      "adversaries": 4041,
      "appreh": 4042,
      "saints": 4043,
      "torture": 4044,
      "privilege": 4045,
      "clothes": 4046,
      "tapster": 4047,
      "opposite": 4048,
      "pause": 4049,
      "thieves": 4050,
      "league": 4051,
      "remorse": 4052,
      "exercise": 4053,
      "monument": 4054,
      "scroop": 4055,
      "emilia": 4056,
      "thecary": 4057,
      "sepulch": 4058,
      "bent": 4059,
      "bio": 4060,
      "brown": 4061,
      "dan": 4062,
      "dion": 4063,
      "date": 4064,
      "dash": 4065,
      "ev": 4066,
      "eem": 4067,
      "fin": 4068,
      "fed": 4069,
      "gour": 4070,
      "gid": 4071,
      "hare": 4072,
      "hatch": 4073,
      "honey": 4074,
      "hrew": 4075,
      "ible": 4076,
      "ict": 4077,
      "md": 4078,
      "mat": 4079,
      "mest": 4080,
      "mould": 4081,
      "mong": 4082,
      "mates": 4083,
      "nut": 4084,
      "nup": 4085,
      "nice": 4086,
      "nigh": 4087,
      "numb": 4088,
      "oh": 4089,
      "os": 4090,
      "oms": 4091,
      "pate": 4092,
      "rouse": 4093,
      "rush": 4094,
      "sings": 4095,
      "smother": 4096,
      "sought": 4097,
      "senses": 4098,
      "ume": 4099,
      "vive": 4100,
      "ws": 4101,
      "wre": 4102,
      "ware": 4103,
      "thin": 4104,
      "thrown": 4105,
      "thumb": 4106,
      "inch": 4107,
      "insu": 4108,
      "injury": 4109,
      "inquire": 4110,
      "ornam": 4111,
      "arrest": 4112,
      "isond": 4113,
      "essed": 4114,
      "escape": 4115,
      "attor": 4116,
      "lling": 4117,
      "stable": 4118,
      "stale": 4119,
      "melt": 4120,
      "metal": 4121,
      "haught": 4122,
      "secre": 4123,
      "search": 4124,
      "whores": 4125,
      "leg": 4126,
      "befall": 4127,
      "begot": 4128,
      "behavior": 4129,
      "heels": 4130,
      "requ": 4131,
      "regi": 4132,
      "recomp": 4133,
      "recre": 4134,
      "iter": 4135,
      "itch": 4136,
      "itiff": 4137,
      "chat": 4138,
      "roses": 4139,
      "forty": 4140,
      "lig": 4141,
      "lied": 4142,
      "liking": 4143,
      "livery": 4144,
      "likes": 4145,
      "licio": 4146,
      "wears": 4147,
      "kets": 4148,
      "noted": 4149,
      "using": 4150,
      "rible": 4151,
      "depose": 4152,
      "devour": 4153,
      "lover": 4154,
      "lock": 4155,
      "coll": 4156,
      "ourself": 4157,
      "thern": 4158,
      "butt": 4159,
      "und": 4160,
      "unate": 4161,
      "unworthy": 4162,
      "esteem": 4163,
      "dozen": 4164,
      "amus": 4165,
      "amiss": 4166,
      "pear": 4167,
      "peach": 4168,
      "idamus": 4169,
      "favours": 4170,
      "rue": 4171,
      "ruction": 4172,
      "super": 4173,
      "lap": 4174,
      "lain": 4175,
      "takest": 4176,
      "tie": 4177,
      "tied": 4178,
      "terd": 4179,
      "share": 4180,
      "shallow": 4181,
      "arted": 4182,
      "upright": 4183,
      "board": 4184,
      "boast": 4185,
      "bosoms": 4186,
      "caitiff": 4187,
      "goods": 4188,
      "ously": 4189,
      "seless": 4190,
      "mars": 4191,
      "promp": 4192,
      "proved": 4193,
      "process": 4194,
      "procure": 4195,
      "prodig": 4196,
      "provide": 4197,
      "pers": 4198,
      "perni": 4199,
      "bleeding": 4200,
      "sav": 4201,
      "sacri": 4202,
      "worm": 4203,
      "grew": 4204,
      "whereon": 4205,
      "mbers": 4206,
      "grain": 4207,
      "merc": 4208,
      "merch": 4209,
      "godden": 4210,
      "coronation": 4211,
      "discourse": 4212,
      "offices": 4213,
      "sweat": 4214,
      "telling": 4215,
      "split": 4216,
      "exped": 4217,
      "exceed": 4218,
      "looked": 4219,
      "nathan": 4220,
      "nable": 4221,
      "monarch": 4222,
      "abra": 4223,
      "abuse": 4224,
      "dido": 4225,
      "divin": 4226,
      "descend": 4227,
      "gnant": 4228,
      "breed": 4229,
      "bread": 4230,
      "counted": 4231,
      "counsell": 4232,
      "leap": 4233,
      "fearing": 4234,
      "trench": 4235,
      "prefer": 4236,
      "sweetly": 4237,
      "headed": 4238,
      "caps": 4239,
      "prime": 4240,
      "price": 4241,
      "prick": 4242,
      "rescue": 4243,
      "madness": 4244,
      "fiend": 4245,
      "putting": 4246,
      "courts": 4247,
      "courteous": 4248,
      "stayd": 4249,
      "immortal": 4250,
      "closed": 4251,
      "tree": 4252,
      "besto": 4253,
      "beshrew": 4254,
      "bidding": 4255,
      "mightst": 4256,
      "trim": 4257,
      "childish": 4258,
      "travell": 4259,
      "trans": 4260,
      "transport": 4261,
      "cambio": 4262,
      "lightning": 4263,
      "henceforth": 4264,
      "tongu": 4265,
      "couldst": 4266,
      "charm": 4267,
      "fardel": 4268,
      "murderd": 4269,
      "purge": 4270,
      "bliss": 4271,
      "bands": 4272,
      "backd": 4273,
      "backs": 4274,
      "compare": 4275,
      "earthly": 4276,
      "waves": 4277,
      "confound": 4278,
      "challen": 4279,
      "falls": 4280,
      "falling": 4281,
      "minded": 4282,
      "omit": 4283,
      "balm": 4284,
      "quired": 4285,
      "borrow": 4286,
      "stock": 4287,
      "turnd": 4288,
      "prosperity": 4289,
      "chosen": 4290,
      "royalty": 4291,
      "sitting": 4292,
      "minute": 4293,
      "scri": 4294,
      "bert": 4295,
      "montagues": 4296,
      "vision": 4297,
      "bowd": 4298,
      "careful": 4299,
      "meddle": 4300,
      "francis": 4301,
      "dreamd": 4302,
      "igence": 4303,
      "commonwealth": 4304,
      "lately": 4305,
      "breathing": 4306,
      "tempted": 4307,
      "folks": 4308,
      "sadness": 4309,
      "sooner": 4310,
      "persons": 4311,
      "zeal": 4312,
      "battles": 4313,
      "defy": 4314,
      "wisely": 4315,
      "learned": 4316,
      "consuls": 4317,
      "acts": 4318,
      "burns": 4319,
      "droop": 4320,
      "flattering": 4321,
      "torch": 4322,
      "prettiest": 4323,
      "covert": 4324,
      "praises": 4325,
      "officers": 4326,
      "blessing": 4327,
      "destruction": 4328,
      "lengthen": 4329,
      "pitied": 4330,
      "archbishop": 4331,
      "archidamus": 4332,
      "written": 4333,
      "liberal": 4334,
      "herefords": 4335,
      "framed": 4336,
      "velvet": 4337,
      "possession": 4338,
      "bitterly": 4339,
      "suddenly": 4340,
      "succession": 4341,
      "drunken": 4342,
      "matchd": 4343,
      "condemned": 4344,
      "gladly": 4345,
      "apothecary": 4346,
      "cherish": 4347,
      "churchyard": 4348,
      "midnight": 4349,
      "mildly": 4350,
      "conceal": 4351,
      "provoked": 4352,
      "musicians": 4353,
      "censure": 4354,
      "shook": 4355,
      "frighted": 4356,
      "piercing": 4357,
      "physic": 4358,
      "steps": 4359,
      "clamour": 4360,
      "gardener": 4361,
      "enforced": 4362,
      "guests": 4363,
      "ggd": 4364,
      "winged": 4365,
      "endured": 4366,
      "months": 4367,
      "substance": 4368,
      "inclined": 4369,
      "nobility": 4370,
      "shrift": 4371,
      "bottom": 4372,
      "prevaild": 4373,
      "prevented": 4374,
      "prophet": 4375,
      "axe": 4376,
      "merely": 4377,
      "statue": 4378,
      "weapon": 4379,
      "weapons": 4380,
      "troops": 4381,
      "companion": 4382,
      "employd": 4383,
      "pilgri": 4384,
      "intelligence": 4385,
      "rebels": 4386,
      "depend": 4387,
      "afflict": 4388,
      "threatening": 4389,
      "knit": 4390,
      "ambitious": 4391,
      "dispersed": 4392,
      "violence": 4393,
      "limbs": 4394,
      "ruthless": 4395,
      "flourish": 4396,
      "rejoice": 4397,
      "reputation": 4398,
      "conjure": 4399,
      "caesar": 4400,
      "capable": 4401,
      "character": 4402,
      "stomach": 4403,
      "spleen": 4404,
      "likeness": 4405,
      "peevish": 4406,
      "proclamation": 4407,
      "warriors": 4408,
      "despised": 4409,
      "trunk": 4410,
      "sepulchre": 4411,
      "giddy": 4412,
      "recompen": 4413,
      "pernicious": 4414,
      "sacrif": 4415,
      "challenge": 4416,
      "amain": 4417,
      "acles": 4418,
      "apace": 4419,
      "bi": 4420,
      "bate": 4421,
      "bans": 4422,
      "blast": 4423,
      "card": 4424,
      "cats": 4425,
      "crut": 4426,
      "dess": 4427,
      "dine": 4428,
      "eight": 4429,
      "egi": 4430,
      "flay": 4431,
      "fanta": 4432,
      "fray": 4433,
      "gd": 4434,
      "gap": 4435,
      "ime": 4436,
      "ians": 4437,
      "ired": 4438,
      "iliar": 4439,
      "ja": 4440,
      "ming": 4441,
      "mate": 4442,
      "mits": 4443,
      "mask": 4444,
      "nour": 4445,
      "nimble": 4446,
      "ola": 4447,
      "phe": 4448,
      "pour": 4449,
      "pper": 4450,
      "push": 4451,
      "rar": 4452,
      "rhe": 4453,
      "rens": 4454,
      "sess": 4455,
      "slight": 4456,
      "skill": 4457,
      "sides": 4458,
      "score": 4459,
      "silly": 4460,
      "tard": 4461,
      "twould": 4462,
      "trow": 4463,
      "umn": 4464,
      "vul": 4465,
      "vast": 4466,
      "vass": 4467,
      "wks": 4468,
      "yest": 4469,
      "zounds": 4470,
      "oured": 4471,
      "inte": 4472,
      "thest": 4473,
      "enrich": 4474,
      "array": 4475,
      "isted": 4476,
      "oned": 4477,
      "lled": 4478,
      "tos": 4479,
      "toil": 4480,
      "stance": 4481,
      "stic": 4482,
      "stick": 4483,
      "members": 4484,
      "hallow": 4485,
      "hamed": 4486,
      "hazard": 4487,
      "seated": 4488,
      "whel": 4489,
      "lewd": 4490,
      "wilts": 4491,
      "belong": 4492,
      "beef": 4493,
      "beats": 4494,
      "betide": 4495,
      "beams": 4496,
      "height": 4497,
      "rear": 4498,
      "recover": 4499,
      "revel": 4500,
      "revive": 4501,
      "itation": 4502,
      "chol": 4503,
      "roof": 4504,
      "robes": 4505,
      "robb": 4506,
      "forgiven": 4507,
      "ashes": 4508,
      "aspect": 4509,
      "ashamed": 4510,
      "livest": 4511,
      "week": 4512,
      "keys": 4513,
      "decre": 4514,
      "loso": 4515,
      "loathe": 4516,
      "entrance": 4517,
      "cot": 4518,
      "cook": 4519,
      "covent": 4520,
      "gos": 4521,
      "owl": 4522,
      "owes": 4523,
      "also": 4524,
      "adul": 4525,
      "advo": 4526,
      "admir": 4527,
      "ung": 4528,
      "unkindness": 4529,
      "allay": 4530,
      "allegi": 4531,
      "rag": 4532,
      "raid": 4533,
      "kingdoms": 4534,
      "amends": 4535,
      "amorous": 4536,
      "peer": 4537,
      "verty": 4538,
      "shade": 4539,
      "fever": 4540,
      "iders": 4541,
      "supre": 4542,
      "sugg": 4543,
      "tack": 4544,
      "poverty": 4545,
      "conquest": 4546,
      "consequ": 4547,
      "term": 4548,
      "shru": 4549,
      "shout": 4550,
      "shown": 4551,
      "shining": 4552,
      "compla": 4553,
      "bowel": 4554,
      "cab": 4555,
      "hoar": 4556,
      "ainted": 4557,
      "frozen": 4558,
      "mary": 4559,
      "marvel": 4560,
      "marvell": 4561,
      "sith": 4562,
      "mul": 4563,
      "perju": 4564,
      "perchance": 4565,
      "permit": 4566,
      "perience": 4567,
      "herein": 4568,
      "venice": 4569,
      "ately": 4570,
      "outrage": 4571,
      "sau": 4572,
      "saved": 4573,
      "knowt": 4574,
      "seeking": 4575,
      "cture": 4576,
      "riches": 4577,
      "lovel": 4578,
      "likewise": 4579,
      "speaking": 4580,
      "baby": 4581,
      "upont": 4582,
      "plebe": 4583,
      "mbles": 4584,
      "rank": 4585,
      "ransom": 4586,
      "goddess": 4587,
      "cially": 4588,
      "corrup": 4589,
      "discre": 4590,
      "discontent": 4591,
      "discharge": 4592,
      "discontented": 4593,
      "bris": 4594,
      "blot": 4595,
      "petty": 4596,
      "offences": 4597,
      "swears": 4598,
      "monster": 4599,
      "monious": 4600,
      "cler": 4601,
      "joves": 4602,
      "landed": 4603,
      "afraid": 4604,
      "bud": 4605,
      "mps": 4606,
      "leaving": 4607,
      "lief": 4608,
      "isement": 4609,
      "partner": 4610,
      "fortunate": 4611,
      "intended": 4612,
      "intents": 4613,
      "downright": 4614,
      "parents": 4615,
      "parties": 4616,
      "grity": 4617,
      "worldly": 4618,
      "presume": 4619,
      "imper": 4620,
      "immedi": 4621,
      "beside": 4622,
      "chequ": 4623,
      "tricks": 4624,
      "childrens": 4625,
      "welsh": 4626,
      "carries": 4627,
      "harp": 4628,
      "dearer": 4629,
      "murders": 4630,
      "flat": 4631,
      "charges": 4632,
      "brains": 4633,
      "senseless": 4634,
      "purple": 4635,
      "pursue": 4636,
      "meantime": 4637,
      "helps": 4638,
      "cushi": 4639,
      "capulets": 4640,
      "ctions": 4641,
      "busy": 4642,
      "clean": 4643,
      "horn": 4644,
      "compas": 4645,
      "compli": 4646,
      "compound": 4647,
      "drew": 4648,
      "hopeful": 4649,
      "bene": 4650,
      "steep": 4651,
      "homely": 4652,
      "dragon": 4653,
      "stops": 4654,
      "stocks": 4655,
      "stolen": 4656,
      "baptistas": 4657,
      "dower": 4658,
      "reply": 4659,
      "sunday": 4660,
      "turned": 4661,
      "brid": 4662,
      "burgun": 4663,
      "runs": 4664,
      "signal": 4665,
      "signify": 4666,
      "contents": 4667,
      "sounds": 4668,
      "sounded": 4669,
      "falsely": 4670,
      "minola": 4671,
      "scatterd": 4672,
      "dared": 4673,
      "hangd": 4674,
      "believed": 4675,
      "straw": 4676,
      "commands": 4677,
      "spot": 4678,
      "spoil": 4679,
      "relent": 4680,
      "revenges": 4681,
      "readiness": 4682,
      "doubtful": 4683,
      "temples": 4684,
      "kisses": 4685,
      "watchd": 4686,
      "interchange": 4687,
      "lambs": 4688,
      "draws": 4689,
      "crying": 4690,
      "touching": 4691,
      "beaten": 4692,
      "boldness": 4693,
      "devilish": 4694,
      "entreaties": 4695,
      "learnd": 4696,
      "wednes": 4697,
      "beautys": 4698,
      "eldest": 4699,
      "drinking": 4700,
      "sufferd": 4701,
      "youthful": 4702,
      "counsels": 4703,
      "damnd": 4704,
      "safely": 4705,
      "safeguard": 4706,
      "testi": 4707,
      "prophes": 4708,
      "cloudy": 4709,
      "grieves": 4710,
      "grieved": 4711,
      "skull": 4712,
      "springs": 4713,
      "satisfaction": 4714,
      "mowbrays": 4715,
      "towns": 4716,
      "divor": 4717,
      "lamentable": 4718,
      "dame": 4719,
      "kinsmen": 4720,
      "darkness": 4721,
      "eaten": 4722,
      "cowardly": 4723,
      "approbation": 4724,
      "fondly": 4725,
      "tutor": 4726,
      "departure": 4727,
      "grandsire": 4728,
      "middle": 4729,
      "mildness": 4730,
      "christop": 4731,
      "ghostly": 4732,
      "dispatchd": 4733,
      "greeting": 4734,
      "extreme": 4735,
      "treasons": 4736,
      "storms": 4737,
      "shoes": 4738,
      "spurgh": 4739,
      "creatures": 4740,
      "usurpd": 4741,
      "usurping": 4742,
      "fingers": 4743,
      "familiar": 4744,
      "mutinous": 4745,
      "seized": 4746,
      "sentenced": 4747,
      "troubled": 4748,
      "lists": 4749,
      "considered": 4750,
      "conveyd": 4751,
      "ministers": 4752,
      "scot": 4753,
      "acquainted": 4754,
      "prevail": 4755,
      "gifts": 4756,
      "retired": 4757,
      "bootless": 4758,
      "stuffd": 4759,
      "hostess": 4760,
      "pawnd": 4761,
      "designs": 4762,
      "preserve": 4763,
      "branch": 4764,
      "crush": 4765,
      "vanity": 4766,
      "wandering": 4767,
      "lodged": 4768,
      "injurious": 4769,
      "infected": 4770,
      "ravenspurgh": 4771,
      "conclude": 4772,
      "comfortable": 4773,
      "accusation": 4774,
      "weddingday": 4775,
      "circumstance": 4776,
      "fixd": 4777,
      "profane": 4778,
      "eagle": 4779,
      "instantly": 4780,
      "advertis": 4781,
      "philoso": 4782,
      "threep": 4783,
      "nobleness": 4784,
      "correction": 4785,
      "example": 4786,
      "heavier": 4787,
      "couple": 4788,
      "varlet": 4789,
      "errand": 4790,
      "incensed": 4791,
      "sufficient": 4792,
      "complexion": 4793,
      "occupation": 4794,
      "substitute": 4795,
      "reconcile": 4796,
      "bereft": 4797,
      "blue": 4798,
      "jesu": 4799,
      "narrow": 4800,
      "estimation": 4801,
      "feigned": 4802,
      "scandal": 4803,
      "tyrannous": 4804,
      "nuptial": 4805,
      "savage": 4806,
      "nathaniel": 4807,
      "abraham": 4808,
      "pilgrimage": 4809,
      "recompense": 4810,
      "integrity": 4811,
      "wiltshire": 4812,
      "coventry": 4813,
      "adulter": 4814,
      "allegiance": 4815,
      "suggest": 4816,
      "complaint": 4817,
      "bowels": 4818,
      "burgundy": 4819,
      "wednesday": 4820,
      "christopher": 4821,
      "philosophy": 4822,
      "ape": 4823,
      "afore": 4824,
      "aves": 4825,
      "apart": 4826,
      "afeard": 4827,
      "aims": 4828,
      "agreed": 4829,
      "awaked": 4830,
      "bul": 4831,
      "blan": 4832,
      "cand": 4833,
      "cta": 4834,
      "cence": 4835,
      "cul": 4836,
      "crest": 4837,
      "cull": 4838,
      "cheap": 4839,
      "ckets": 4840,
      "dried": 4841,
      "dined": 4842,
      "ew": 4843,
      "ell": 4844,
      "foun": 4845,
      "gis": 4846,
      "gle": 4847,
      "gloves": 4848,
      "gging": 4849,
      "hound": 4850,
      "hounds": 4851,
      "icles": 4852,
      "jer": 4853,
      "jun": 4854,
      "jup": 4855,
      "kent": 4856,
      "kites": 4857,
      "las": 4858,
      "liness": 4859,
      "lishd": 4860,
      "lute": 4861,
      "mouse": 4862,
      "mbroke": 4863,
      "non": 4864,
      "naught": 4865,
      "oted": 4866,
      "patter": 4867,
      "pular": 4868,
      "ront": 4869,
      "sof": 4870,
      "scap": 4871,
      "scur": 4872,
      "tany": 4873,
      "troy": 4874,
      "ug": 4875,
      "ually": 4876,
      "xes": 4877,
      "yare": 4878,
      "zy": 4879,
      "zing": 4880,
      "zel": 4881,
      "thage": 4882,
      "threw": 4883,
      "ancest": 4884,
      "ern": 4885,
      "ero": 4886,
      "error": 4887,
      "inu": 4888,
      "indu": 4889,
      "inward": 4890,
      "inies": 4891,
      "invent": 4892,
      "injustice": 4893,
      "theme": 4894,
      "ored": 4895,
      "orator": 4896,
      "eng": 4897,
      "ensu": 4898,
      "envir": 4899,
      "armed": 4900,
      "ising": 4901,
      "toe": 4902,
      "tops": 4903,
      "toads": 4904,
      "sti": 4905,
      "start": 4906,
      "stag": 4907,
      "stiff": 4908,
      "meth": 4909,
      "meas": 4910,
      "meed": 4911,
      "mewd": 4912,
      "ingrate": 4913,
      "seet": 4914,
      "separ": 4915,
      "severe": 4916,
      "leful": 4917,
      "level": 4918,
      "wield": 4919,
      "bel": 4920,
      "became": 4921,
      "beards": 4922,
      "heth": 4923,
      "heel": 4924,
      "heigh": 4925,
      "heinous": 4926,
      "rebu": 4927,
      "repri": 4928,
      "requit": 4929,
      "require": 4930,
      "itable": 4931,
      "chop": 4932,
      "chances": 4933,
      "rode": 4934,
      "roard": 4935,
      "rope": 4936,
      "roaring": 4937,
      "forsake": 4938,
      "forsooth": 4939,
      "asking": 4940,
      "asant": 4941,
      "asion": 4942,
      "assa": 4943,
      "cels": 4944,
      "lick": 4945,
      "lions": 4946,
      "lihood": 4947,
      "wet": 4948,
      "utmost": 4949,
      "usual": 4950,
      "rip": 4951,
      "rice": 4952,
      "deer": 4953,
      "deceive": 4954,
      "locks": 4955,
      "loose": 4956,
      "lodge": 4957,
      "wither": 4958,
      "soo": 4959,
      "cob": 4960,
      "coz": 4961,
      "coast": 4962,
      "cozen": 4963,
      "hips": 4964,
      "aloud": 4965,
      "albans": 4966,
      "ador": 4967,
      "adop": 4968,
      "history": 4969,
      "butter": 4970,
      "butchers": 4971,
      "undo": 4972,
      "unru": 4973,
      "unluck": 4974,
      "unseen": 4975,
      "uncertain": 4976,
      "unlookd": 4977,
      "unwilling": 4978,
      "alld": 4979,
      "allies": 4980,
      "doct": 4981,
      "doves": 4982,
      "race": 4983,
      "rages": 4984,
      "rails": 4985,
      "maker": 4986,
      "magis": 4987,
      "whatsoever": 4988,
      "amb": 4989,
      "ames": 4990,
      "aming": 4991,
      "peian": 4992,
      "pembroke": 4993,
      "shapen": 4994,
      "fees": 4995,
      "feat": 4996,
      "manly": 4997,
      "manhood": 4998,
      "nel": 4999,
      "neat": 5000,
      "nept": 5001,
      "neys": 5002,
      "rumour": 5003,
      "suck": 5004,
      "taunts": 5005,
      "prat": 5006,
      "prate": 5007,
      "prise": 5008,
      "prating": 5009,
      "tire": 5010,
      "popular": 5011,
      "conge": 5012,
      "conven": 5013,
      "concl": 5014,
      "constable": 5015,
      "terr": 5016,
      "shores": 5017,
      "quis": 5018,
      "moral": 5019,
      "whipt": 5020,
      "combat": 5021,
      "boister": 5022,
      "causes": 5023,
      "hole": 5024,
      "moe": 5025,
      "moment": 5026,
      "moving": 5027,
      "model": 5028,
      "moiety": 5029,
      "frost": 5030,
      "sig": 5031,
      "sive": 5032,
      "mum": 5033,
      "sheathe": 5034,
      "shearing": 5035,
      "teth": 5036,
      "tewks": 5037,
      "procla": 5038,
      "pery": 5039,
      "perfection": 5040,
      "perfu": 5041,
      "perjury": 5042,
      "thereto": 5043,
      "canop": 5044,
      "sap": 5045,
      "sack": 5046,
      "sacra": 5047,
      "worser": 5048,
      "worms": 5049,
      "worships": 5050,
      "broach": 5051,
      "seeks": 5052,
      "ctly": 5053,
      "grees": 5054,
      "wolves": 5055,
      "ived": 5056,
      "gles": 5057,
      "wares": 5058,
      "likelihood": 5059,
      "spect": 5060,
      "specta": 5061,
      "bald": 5062,
      "audi": 5063,
      "forehead": 5064,
      "northern": 5065,
      "shoulders": 5066,
      "mustard": 5067,
      "vial": 5068,
      "eless": 5069,
      "corax": 5070,
      "distra": 5071,
      "distress": 5072,
      "disting": 5073,
      "distur": 5074,
      "brat": 5075,
      "mischief": 5076,
      "serious": 5077,
      "spiders": 5078,
      "exact": 5079,
      "experience": 5080,
      "gust": 5081,
      "nail": 5082,
      "nails": 5083,
      "cester": 5084,
      "ables": 5085,
      "diest": 5086,
      "divide": 5087,
      "brotherhood": 5088,
      "breeding": 5089,
      "breaking": 5090,
      "buckle": 5091,
      "otherwise": 5092,
      "mph": 5093,
      "mption": 5094,
      "accomp": 5095,
      "accustom": 5096,
      "eyed": 5097,
      "pped": 5098,
      "angels": 5099,
      "prays": 5100,
      "angers": 5101,
      "sweetest": 5102,
      "intends": 5103,
      "iced": 5104,
      "named": 5105,
      "nighting": 5106,
      "nightly": 5107,
      "nobleman": 5108,
      "setting": 5109,
      "privy": 5110,
      "resist": 5111,
      "resemb": 5112,
      "madest": 5113,
      "thood": 5114,
      "ased": 5115,
      "fiance": 5116,
      "wring": 5117,
      "evermore": 5118,
      "everlasting": 5119,
      "oppression": 5120,
      "downfall": 5121,
      "courses": 5122,
      "courtier": 5123,
      "impeach": 5124,
      "rests": 5125,
      "insinu": 5126,
      "cloak": 5127,
      "cheque": 5128,
      "game": 5129,
      "gather": 5130,
      "tried": 5131,
      "trifles": 5132,
      "train": 5133,
      "beggd": 5134,
      "showing": 5135,
      "friendship": 5136,
      "carri": 5137,
      "carthage": 5138,
      "calamity": 5139,
      "lights": 5140,
      "talking": 5141,
      "harbour": 5142,
      "harvest": 5143,
      "harmony": 5144,
      "dearth": 5145,
      "ivant": 5146,
      "flint": 5147,
      "commends": 5148,
      "braved": 5149,
      "sensible": 5150,
      "keeping": 5151,
      "murdered": 5152,
      "murderous": 5153,
      "pursuit": 5154,
      "meaner": 5155,
      "helm": 5156,
      "blister": 5157,
      "afterward": 5158,
      "margarets": 5159,
      "subdu": 5160,
      "happier": 5161,
      "wave": 5162,
      "waits": 5163,
      "confidence": 5164,
      "confeder": 5165,
      "following": 5166,
      "champ": 5167,
      "fallen": 5168,
      "steed": 5169,
      "steward": 5170,
      "dram": 5171,
      "stoln": 5172,
      "creep": 5173,
      "crept": 5174,
      "killing": 5175,
      "isting": 5176,
      "patron": 5177,
      "falcon": 5178,
      "bric": 5179,
      "shire": 5180,
      "strife": 5181,
      "strict": 5182,
      "burden": 5183,
      "chose": 5184,
      "wronged": 5185,
      "royalties": 5186,
      "cliffords": 5187,
      "plays": 5188,
      "thousands": 5189,
      "barbar": 5190,
      "prisoners": 5191,
      "beseeming": 5192,
      "mercutios": 5193,
      "anothers": 5194,
      "crab": 5195,
      "cracking": 5196,
      "crackd": 5197,
      "lowly": 5198,
      "claudios": 5199,
      "minutes": 5200,
      "sleeps": 5201,
      "hangman": 5202,
      "matters": 5203,
      "bowl": 5204,
      "fights": 5205,
      "reasonable": 5206,
      "vail": 5207,
      "franch": 5208,
      "frantic": 5209,
      "proudest": 5210,
      "dreamt": 5211,
      "blade": 5212,
      "blaze": 5213,
      "revenue": 5214,
      "ignoble": 5215,
      "window": 5216,
      "fouler": 5217,
      "yielding": 5218,
      "tempor": 5219,
      "appears": 5220,
      "kissd": 5221,
      "singular": 5222,
      "watery": 5223,
      "breaks": 5224,
      "delicate": 5225,
      "returnd": 5226,
      "hunger": 5227,
      "tenderness": 5228,
      "pedlar": 5229,
      "sadly": 5230,
      "saddle": 5231,
      "reported": 5232,
      "smiling": 5233,
      "silk": 5234,
      "learning": 5235,
      "beating": 5236,
      "airy": 5237,
      "growth": 5238,
      "surfeit": 5239,
      "quarre": 5240,
      "confessor": 5241,
      "confession": 5242,
      "entreaty": 5243,
      "humility": 5244,
      "wedded": 5245,
      "leaden": 5246,
      "antium": 5247,
      "poses": 5248,
      "attended": 5249,
      "suffice": 5250,
      "speedy": 5251,
      "revengeful": 5252,
      "acknow": 5253,
      "damnable": 5254,
      "plants": 5255,
      "flatterers": 5256,
      "torn": 5257,
      "lads": 5258,
      "coverd": 5259,
      "wonderful": 5260,
      "flock": 5261,
      "vowd": 5262,
      "volscian": 5263,
      "volscians": 5264,
      "tribune": 5265,
      "certainly": 5266,
      "softly": 5267,
      "destiny": 5268,
      "rising": 5269,
      "eternal": 5270,
      "leness": 5271,
      "lenity": 5272,
      "knocks": 5273,
      "proceedings": 5274,
      "breasts": 5275,
      "feasts": 5276,
      "visitation": 5277,
      "hinder": 5278,
      "summon": 5279,
      "troubl": 5280,
      "divided": 5281,
      "suffering": 5282,
      "sufferance": 5283,
      "cupid": 5284,
      "lamentation": 5285,
      "smallest": 5286,
      "scorns": 5287,
      "easily": 5288,
      "sixteen": 5289,
      "temple": 5290,
      "approved": 5291,
      "crossd": 5292,
      "waken": 5293,
      "abhorrd": 5294,
      "grandfather": 5295,
      "midst": 5296,
      "puiss": 5297,
      "stark": 5298,
      "starve": 5299,
      "wenches": 5300,
      "innocence": 5301,
      "extremes": 5302,
      "mountain": 5303,
      "reigns": 5304,
      "spurs": 5305,
      "support": 5306,
      "drownd": 5307,
      "evils": 5308,
      "tarpeian": 5309,
      "glasses": 5310,
      "slanderous": 5311,
      "milk": 5312,
      "sycorax": 5313,
      "reckon": 5314,
      "bending": 5315,
      "chiefest": 5316,
      "blushing": 5317,
      "imagination": 5318,
      "loyalty": 5319,
      "stooping": 5320,
      "roundly": 5321,
      "redemption": 5322,
      "patrician": 5323,
      "prophecy": 5324,
      "drift": 5325,
      "loathsome": 5326,
      "sheepshearing": 5327,
      "advanced": 5328,
      "crows": 5329,
      "freedom": 5330,
      "pursued": 5331,
      "pursuivant": 5332,
      "destroyd": 5333,
      "apollos": 5334,
      "schoolmaster": 5335,
      "branches": 5336,
      "fifth": 5337,
      "fifteen": 5338,
      "slily": 5339,
      "wander": 5340,
      "statutes": 5341,
      "vexd": 5342,
      "lodging": 5343,
      "quali": 5344,
      "quake": 5345,
      "disgraced": 5346,
      "digest": 5347,
      "guiltless": 5348,
      "conqueror": 5349,
      "pestil": 5350,
      "shrink": 5351,
      "comforts": 5352,
      "fleet": 5353,
      "repeald": 5354,
      "dressd": 5355,
      "affliction": 5356,
      "eager": 5357,
      "swelling": 5358,
      "stretch": 5359,
      "medic": 5360,
      "adverse": 5361,
      "whispering": 5362,
      "bounty": 5363,
      "ceremonious": 5364,
      "lunatic": 5365,
      "render": 5366,
      "multitude": 5367,
      "dissemble": 5368,
      "achieve": 5369,
      "ctious": 5370,
      "tunis": 5371,
      "concerns": 5372,
      "spark": 5373,
      "councils": 5374,
      "wrinkled": 5375,
      "tribute": 5376,
      "consorted": 5377,
      "rushes": 5378,
      "decay": 5379,
      "moody": 5380,
      "mariners": 5381,
      "blemish": 5382,
      "brittany": 5383,
      "apprehend": 5384,
      "dancing": 5385,
      "numbers": 5386,
      "smotherd": 5387,
      "insulting": 5388,
      "ornaments": 5389,
      "secrets": 5390,
      "whoreson": 5391,
      "requires": 5392,
      "recreant": 5393,
      "ligence": 5394,
      "pearl": 5395,
      "merciful": 5396,
      "merchant": 5397,
      "counsellor": 5398,
      "fantastic": 5399,
      "tardy": 5400,
      "vulgar": 5401,
      "yester": 5402,
      "forgiveness": 5403,
      "loathed": 5404,
      "gossi": 5405,
      "advocate": 5406,
      "consequence": 5407,
      "cabin": 5408,
      "marvellous": 5409,
      "perjured": 5410,
      "plebeians": 5411,
      "corruption": 5412,
      "compassion": 5413,
      "bridal": 5414,
      "prophesy": 5415,
      "scotland": 5416,
      "jupiter": 5417,
      "pattern": 5418,
      "unruly": 5419,
      "magistr": 5420,
      "neptune": 5421,
      "conclusion": 5422,
      "boisterous": 5423,
      "tewksbury": 5424,
      "sacrament": 5425,
      "distingu": 5426,
      "accustomd": 5427,
      "ais": 5428,
      "awe": 5429,
      "apri": 5430,
      "aliz": 5431,
      "afoot": 5432,
      "avouch": 5433,
      "bone": 5434,
      "bind": 5435,
      "bout": 5436,
      "bought": 5437,
      "cant": 5438,
      "cation": 5439,
      "ctive": 5440,
      "dir": 5441,
      "drow": 5442,
      "dangers": 5443,
      "elo": 5444,
      "ege": 5445,
      "equ": 5446,
      "eous": 5447,
      "ect": 5448,
      "eks": 5449,
      "ebus": 5450,
      "ebb": 5451,
      "fli": 5452,
      "fate": 5453,
      "flu": 5454,
      "fty": 5455,
      "fours": 5456,
      "front": 5457,
      "gay": 5458,
      "gul": 5459,
      "gled": 5460,
      "gasp": 5461,
      "gative": 5462,
      "iving": 5463,
      "jade": 5464,
      "ky": 5465,
      "kens": 5466,
      "lou": 5467,
      "lin": 5468,
      "lon": 5469,
      "link": 5470,
      "lful": 5471,
      "lends": 5472,
      "nur": 5473,
      "nie": 5474,
      "nic": 5475,
      "oling": 5476,
      "py": 5477,
      "pha": 5478,
      "pir": 5479,
      "pere": 5480,
      "pine": 5481,
      "pant": 5482,
      "ption": 5483,
      "pull": 5484,
      "plight": 5485,
      "plate": 5486,
      "pounds": 5487,
      "rist": 5488,
      "rats": 5489,
      "rites": 5490,
      "squ": 5491,
      "sine": 5492,
      "scour": 5493,
      "scal": 5494,
      "sunder": 5495,
      "schol": 5496,
      "tou": 5497,
      "tink": 5498,
      "tance": 5499,
      "tents": 5500,
      "tumble": 5501,
      "ums": 5502,
      "vine": 5503,
      "vity": 5504,
      "wart": 5505,
      "wran": 5506,
      "yere": 5507,
      "zz": 5508,
      "zes": 5509,
      "zon": 5510,
      "thres": 5511,
      "thwa": 5512,
      "erun": 5513,
      "inve": 5514,
      "inal": 5515,
      "insol": 5516,
      "inconstant": 5517,
      "inhabit": 5518,
      "instead": 5519,
      "incapable": 5520,
      "thed": 5521,
      "orph": 5522,
      "ening": 5523,
      "encourage": 5524,
      "enfranch": 5525,
      "argo": 5526,
      "arison": 5527,
      "arbit": 5528,
      "isome": 5529,
      "espe": 5530,
      "onet": 5531,
      "ander": 5532,
      "ato": 5533,
      "atta": 5534,
      "attent": 5535,
      "attaind": 5536,
      "llies": 5537,
      "toy": 5538,
      "token": 5539,
      "stin": 5540,
      "stem": 5541,
      "staff": 5542,
      "stinking": 5543,
      "meal": 5544,
      "mete": 5545,
      "mellow": 5546,
      "melting": 5547,
      "noses": 5548,
      "halt": 5549,
      "haunt": 5550,
      "hazel": 5551,
      "sex": 5552,
      "sedu": 5553,
      "whet": 5554,
      "whore": 5555,
      "lei": 5556,
      "levy": 5557,
      "levied": 5558,
      "wilful": 5559,
      "beet": 5560,
      "befal": 5561,
      "beads": 5562,
      "befits": 5563,
      "beware": 5564,
      "heal": 5565,
      "hect": 5566,
      "rein": 5567,
      "repro": 5568,
      "relea": 5569,
      "relie": 5570,
      "repossess": 5571,
      "reproof": 5572,
      "requite": 5573,
      "repetition": 5574,
      "required": 5575,
      "itories": 5576,
      "chest": 5577,
      "chid": 5578,
      "chery": 5579,
      "chival": 5580,
      "christ": 5581,
      "rocks": 5582,
      "fors": 5583,
      "foret": 5584,
      "forest": 5585,
      "forces": 5586,
      "formed": 5587,
      "fornic": 5588,
      "forerun": 5589,
      "asy": 5590,
      "ashor": 5591,
      "ascend": 5592,
      "ediment": 5593,
      "liqu": 5594,
      "ligent": 5595,
      "licit": 5596,
      "limits": 5597,
      "weed": 5598,
      "utation": 5599,
      "eret": 5600,
      "notes": 5601,
      "notwith": 5602,
      "notorious": 5603,
      "usest": 5604,
      "rial": 5605,
      "rival": 5606,
      "device": 5607,
      "deform": 5608,
      "deeper": 5609,
      "debase": 5610,
      "degrees": 5611,
      "lodo": 5612,
      "loins": 5613,
      "sow": 5614,
      "solicit": 5615,
      "ently": 5616,
      "entire": 5617,
      "entrails": 5618,
      "coal": 5619,
      "coil": 5620,
      "covery": 5621,
      "coals": 5622,
      "gost": 5623,
      "etied": 5624,
      "alar": 5625,
      "alty": 5626,
      "altogether": 5627,
      "adise": 5628,
      "admi": 5629,
      "uni": 5630,
      "uned": 5631,
      "unity": 5632,
      "uneven": 5633,
      "unborn": 5634,
      "unfit": 5635,
      "unlawful": 5636,
      "unfeigned": 5637,
      "doors": 5638,
      "domin": 5639,
      "dolour": 5640,
      "ram": 5641,
      "raw": 5642,
      "rack": 5643,
      "rapi": 5644,
      "raging": 5645,
      "raiment": 5646,
      "ordin": 5647,
      "ami": 5648,
      "amend": 5649,
      "pel": 5650,
      "vering": 5651,
      "verse": 5652,
      "shades": 5653,
      "shaped": 5654,
      "areth": 5655,
      "feits": 5656,
      "feeding": 5657,
      "female": 5658,
      "idly": 5659,
      "herbs": 5660,
      "hercul": 5661,
      "fatho": 5662,
      "ckold": 5663,
      "geld": 5664,
      "mantle": 5665,
      "neath": 5666,
      "sued": 5667,
      "sugar": 5668,
      "suckd": 5669,
      "tag": 5670,
      "tamed": 5671,
      "pry": 5672,
      "pran": 5673,
      "print": 5674,
      "prunes": 5675,
      "prero": 5676,
      "tiger": 5677,
      "pox": 5678,
      "potent": 5679,
      "pocket": 5680,
      "poisond": 5681,
      "contri": 5682,
      "contain": 5683,
      "constru": 5684,
      "tering": 5685,
      "terrible": 5686,
      "endow": 5687,
      "quet": 5688,
      "quity": 5689,
      "quaint": 5690,
      "morous": 5691,
      "composition": 5692,
      "boon": 5693,
      "bolt": 5694,
      "cave": 5695,
      "holi": 5696,
      "howe": 5697,
      "hook": 5698,
      "hops": 5699,
      "hoped": 5700,
      "homage": 5701,
      "moan": 5702,
      "mocking": 5703,
      "dumb": 5704,
      "ounce": 5705,
      "marble": 5706,
      "marrd": 5707,
      "sia": 5708,
      "sies": 5709,
      "simp": 5710,
      "siege": 5711,
      "muff": 5712,
      "shel": 5713,
      "sheet": 5714,
      "promotion": 5715,
      "produce": 5716,
      "thereon": 5717,
      "whoever": 5718,
      "bled": 5719,
      "bleed": 5720,
      "bleeds": 5721,
      "indire": 5722,
      "indiffer": 5723,
      "ateful": 5724,
      "sayest": 5725,
      "safer": 5726,
      "savour": 5727,
      "knowest": 5728,
      "brokes": 5729,
      "ively": 5730,
      "glories": 5731,
      "warn": 5732,
      "warning": 5733,
      "spear": 5734,
      "bait": 5735,
      "bail": 5736,
      "bache": 5737,
      "fox": 5738,
      "follies": 5739,
      "wayward": 5740,
      "truer": 5741,
      "musty": 5742,
      "pledge": 5743,
      "centre": 5744,
      "graft": 5745,
      "rancour": 5746,
      "ranks": 5747,
      "earldom": 5748,
      "cipl": 5749,
      "dispose": 5750,
      "displeasure": 5751,
      "disposed": 5752,
      "distres": 5753,
      "discharged": 5754,
      "distin": 5755,
      "discords": 5756,
      "brass": 5757,
      "ured": 5758,
      "taket": 5759,
      "gentler": 5760,
      "misfortune": 5761,
      "mistaking": 5762,
      "misshapen": 5763,
      "daylight": 5764,
      "peters": 5765,
      "hension": 5766,
      "offi": 5767,
      "timeless": 5768,
      "serpent": 5769,
      "sped": 5770,
      "spurn": 5771,
      "spire": 5772,
      "spices": 5773,
      "spider": 5774,
      "spilt": 5775,
      "yorks": 5776,
      "heartblood": 5777,
      "looker": 5778,
      "hears": 5779,
      "hearth": 5780,
      "hearst": 5781,
      "mont": 5782,
      "heavin": 5783,
      "abbot": 5784,
      "dian": 5785,
      "diet": 5786,
      "dict": 5787,
      "diade": 5788,
      "division": 5789,
      "jocun": 5790,
      "ladyship": 5791,
      "affright": 5792,
      "breech": 5793,
      "bloods": 5794,
      "buck": 5795,
      "budge": 5796,
      "built": 5797,
      "mptory": 5798,
      "acy": 5799,
      "accent": 5800,
      "newmade": 5801,
      "trades": 5802,
      "preced": 5803,
      "preposter": 5804,
      "pregnant": 5805,
      "sweets": 5806,
      "bearer": 5807,
      "headstrong": 5808,
      "capti": 5809,
      "captive": 5810,
      "capital": 5811,
      "caparison": 5812,
      "pricks": 5813,
      "reser": 5814,
      "resort": 5815,
      "rescu": 5816,
      "juliets": 5817,
      "madly": 5818,
      "madman": 5819,
      "longest": 5820,
      "opposed": 5821,
      "parent": 5822,
      "parall": 5823,
      "partake": 5824,
      "paradise": 5825,
      "grass": 5826,
      "grateful": 5827,
      "impr": 5828,
      "impression": 5829,
      "restored": 5830,
      "cloth": 5831,
      "ssd": 5832,
      "treat": 5833,
      "treas": 5834,
      "trembles": 5835,
      "aches": 5836,
      "caused": 5837,
      "rightly": 5838,
      "nursed": 5839,
      "cheth": 5840,
      "gait": 5841,
      "gape": 5842,
      "gaol": 5843,
      "tragic": 5844,
      "showers": 5845,
      "welcomes": 5846,
      "camp": 5847,
      "bolingbrokes": 5848,
      "calumn": 5849,
      "calais": 5850,
      "crowned": 5851,
      "lightly": 5852,
      "lightness": 5853,
      "tales": 5854,
      "peaceful": 5855,
      "gious": 5856,
      "climb": 5857,
      "climate": 5858,
      "powder": 5859,
      "commod": 5860,
      "charitable": 5861,
      "banquet": 5862,
      "farm": 5863,
      "farthest": 5864,
      "keepst": 5865,
      "understanding": 5866,
      "underneath": 5867,
      "contend": 5868,
      "murdering": 5869,
      "purcha": 5870,
      "hourly": 5871,
      "slack": 5872,
      "curs": 5873,
      "cures": 5874,
      "curtain": 5875,
      "bandy": 5876,
      "bestride": 5877,
      "pardond": 5878,
      "tending": 5879,
      "subscri": 5880,
      "echo": 5881,
      "royally": 5882,
      "higher": 5883,
      "highway": 5884,
      "backward": 5885,
      "elsewhere": 5886,
      "pardons": 5887,
      "getting": 5888,
      "needless": 5889,
      "hush": 5890,
      "earths": 5891,
      "wax": 5892,
      "confines": 5893,
      "chains": 5894,
      "falln": 5895,
      "placed": 5896,
      "bodes": 5897,
      "yellow": 5898,
      "crew": 5899,
      "create": 5900,
      "created": 5901,
      "killed": 5902,
      "replied": 5903,
      "shamed": 5904,
      "sung": 5905,
      "suns": 5906,
      "sunshine": 5907,
      "turning": 5908,
      "remedies": 5909,
      "bribe": 5910,
      "sands": 5911,
      "strip": 5912,
      "witted": 5913,
      "marrying": 5914,
      "versy": 5915,
      "signs": 5916,
      "villany": 5917,
      "doubly": 5918,
      "doubted": 5919,
      "cram": 5920,
      "herds": 5921,
      "strat": 5922,
      "string": 5923,
      "strumpet": 5924,
      "sleepy": 5925,
      "scars": 5926,
      "formd": 5927,
      "daring": 5928,
      "kneeld": 5929,
      "wisest": 5930,
      "biting": 5931,
      "bows": 5932,
      "fighting": 5933,
      "strait": 5934,
      "strains": 5935,
      "meditation": 5936,
      "commanding": 5937,
      "frank": 5938,
      "relish": 5939,
      "biancas": 5940,
      "volume": 5941,
      "wishing": 5942,
      "coldly": 5943,
      "appell": 5944,
      "kissing": 5945,
      "sisters": 5946,
      "sisterhood": 5947,
      "interpret": 5948,
      "interrup": 5949,
      "fitted": 5950,
      "footman": 5951,
      "ighthood": 5952,
      "plaints": 5953,
      "returned": 5954,
      "woeful": 5955,
      "rememberd": 5956,
      "tenderly": 5957,
      "generate": 5958,
      "nearer": 5959,
      "value": 5960,
      "hardy": 5961,
      "hardhearted": 5962,
      "titles": 5963,
      "silken": 5964,
      "warrants": 5965,
      "apply": 5966,
      "appla": 5967,
      "impud": 5968,
      "impediment": 5969,
      "zement": 5970,
      "pastime": 5971,
      "deeply": 5972,
      "strongly": 5973,
      "fasting": 5974,
      "hedge": 5975,
      "profits": 5976,
      "worthily": 5977,
      "judged": 5978,
      "pick": 5979,
      "picious": 5980,
      "pilot": 5981,
      "picture": 5982,
      "resolute": 5983,
      "antic": 5984,
      "antiates": 5985,
      "consumed": 5986,
      "delivered": 5987,
      "aloof": 5988,
      "actor": 5989,
      "cros": 5990,
      "crook": 5991,
      "wasted": 5992,
      "salute": 5993,
      "strengthen": 5994,
      "orderly": 5995,
      "succor": 5996,
      "penny": 5997,
      "torments": 5998,
      "obsc": 5999,
      "stances": 6000,
      "stirs": 6001,
      "stirrd": 6002,
      "stirring": 6003,
      "wonderd": 6004,
      "praised": 6005,
      "wales": 6006,
      "walter": 6007,
      "street": 6008,
      "stream": 6009,
      "breathes": 6010,
      "thorn": 6011,
      "thorough": 6012,
      "thorns": 6013,
      "doricles": 6014,
      "embas": 6015,
      "wheels": 6016,
      "cheerfully": 6017,
      "appeared": 6018,
      "blessd": 6019,
      "blessings": 6020,
      "possessed": 6021,
      "direful": 6022,
      "harmless": 6023,
      "fills": 6024,
      "nibal": 6025,
      "skins": 6026,
      "wooers": 6027,
      "hurl": 6028,
      "hurried": 6029,
      "pays": 6030,
      "poisonous": 6031,
      "victorious": 6032,
      "palm": 6033,
      "scarlet": 6034,
      "greece": 6035,
      "bishops": 6036,
      "keepers": 6037,
      "sighd": 6038,
      "closely": 6039,
      "witnesses": 6040,
      "governor": 6041,
      "chamberlain": 6042,
      "scornd": 6043,
      "changes": 6044,
      "mockery": 6045,
      "pleasures": 6046,
      "eating": 6047,
      "slanders": 6048,
      "infring": 6049,
      "cowardice": 6050,
      "favourd": 6051,
      "sixth": 6052,
      "temperd": 6053,
      "temperate": 6054,
      "worshipful": 6055,
      "triumphs": 6056,
      "ethon": 6057,
      "millions": 6058,
      "added": 6059,
      "adders": 6060,
      "malicious": 6061,
      "firmly": 6062,
      "obeyd": 6063,
      "midwife": 6064,
      "puff": 6065,
      "western": 6066,
      "beastly": 6067,
      "hideous": 6068,
      "mourning": 6069,
      "lected": 6070,
      "lecture": 6071,
      "greetings": 6072,
      "extremest": 6073,
      "embraced": 6074,
      "cordial": 6075,
      "mounting": 6076,
      "solely": 6077,
      "lustful": 6078,
      "curious": 6079,
      "cuckold": 6080,
      "famish": 6081,
      "mutiny": 6082,
      "severd": 6083,
      "suppliant": 6084,
      "fruits": 6085,
      "tarqu": 6086,
      "enjoyd": 6087,
      "miles": 6088,
      "threats": 6089,
      "stables": 6090,
      "utterd": 6091,
      "utterance": 6092,
      "conditions": 6093,
      "punishd": 6094,
      "contrad": 6095,
      "persuasion": 6096,
      "sailors": 6097,
      "napkin": 6098,
      "scarcely": 6099,
      "amazement": 6100,
      "demands": 6101,
      "renownd": 6102,
      "dwells": 6103,
      "throats": 6104,
      "inclination": 6105,
      "weighd": 6106,
      "quality": 6107,
      "miseries": 6108,
      "faintly": 6109,
      "necessary": 6110,
      "shriek": 6111,
      "fruitful": 6112,
      "flame": 6113,
      "assistance": 6114,
      "importune": 6115,
      "dedic": 6116,
      "pinchd": 6117,
      "thirst": 6118,
      "inherited": 6119,
      "whistle": 6120,
      "delights": 6121,
      "preserved": 6122,
      "treachery": 6123,
      "jealousies": 6124,
      "temperance": 6125,
      "pronounced": 6126,
      "aediles": 6127,
      "bondage": 6128,
      "sceptres": 6129,
      "wonders": 6130,
      "rewards": 6131,
      "aspiring": 6132,
      "posterity": 6133,
      "rascals": 6134,
      "baseness": 6135,
      "injuries": 6136,
      "weighty": 6137,
      "alterd": 6138,
      "concluded": 6139,
      "mornings": 6140,
      "penitence": 6141,
      "solemnity": 6142,
      "circumstances": 6143,
      "furnish": 6144,
      "furnishd": 6145,
      "intelli": 6146,
      "rebel": 6147,
      "repeal": 6148,
      "choleric": 6149,
      "fixed": 6150,
      "apprehension": 6151,
      "publicly": 6152,
      "aimd": 6153,
      "knighthood": 6154,
      "ambition": 6155,
      "merrily": 6156,
      "merriment": 6157,
      "awry": 6158,
      "chastity": 6159,
      "chastisement": 6160,
      "function": 6161,
      "lungs": 6162,
      "porter": 6163,
      "philip": 6164,
      "plucks": 6165,
      "threes": 6166,
      "inferior": 6167,
      "issued": 6168,
      "stampd": 6169,
      "nobler": 6170,
      "admitted": 6171,
      "correct": 6172,
      "restraint": 6173,
      "achieved": 6174,
      "brawl": 6175,
      "brawling": 6176,
      "controversy": 6177,
      "difference": 6178,
      "events": 6179,
      "knightly": 6180,
      "puppet": 6181,
      "swoon": 6182,
      "beguile": 6183,
      "beguiled": 6184,
      "receives": 6185,
      "factors": 6186,
      "council": 6187,
      "betrayd": 6188,
      "bruised": 6189,
      "baggage": 6190,
      "eagles": 6191,
      "festival": 6192,
      "latest": 6193,
      "phoebus": 6194,
      "painting": 6195,
      "scolding": 6196,
      "waning": 6197,
      "anchor": 6198,
      "society": 6199,
      "disguised": 6200,
      "bankrupt": 6201,
      "beautiful": 6202,
      "impatience": 6203,
      "impatient": 6204,
      "physicians": 6205,
      "mongst": 6206,
      "attorney": 6207,
      "haughty": 6208,
      "regiment": 6209,
      "superflu": 6210,
      "prompt": 6211,
      "prodigal": 6212,
      "expedition": 6213,
      "divines": 6214,
      "bestow": 6215,
      "transported": 6216,
      "tonguetied": 6217,
      "flayed": 6218,
      "vassal": 6219,
      "ragged": 6220,
      "supreme": 6221,
      "saucy": 6222,
      "imperial": 6223,
      "immediately": 6224,
      "welshmen": 6225,
      "steepd": 6226,
      "testimony": 6227,
      "skulls": 6228,
      "divorce": 6229,
      "advertised": 6230,
      "candle": 6231,
      "scurvy": 6232,
      "ugly": 6233,
      "rebuke": 6234,
      "reprieve": 6235,
      "assault": 6236,
      "convenient": 6237,
      "territories": 6238,
      "signor": 6239,
      "canopy": 6240,
      "disturb": 6241,
      "nightingale": 6242,
      "acknowledge": 6243,
      "troublous": 6244,
      "puissant": 6245,
      "reckoning": 6246,
      "pestilence": 6247,
      "medicine": 6248,
      "gossips": 6249,
      "alize": 6250,
      "eloqu": 6251,
      "fourscore": 6252,
      "gulf": 6253,
      "louder": 6254,
      "phaethon": 6255,
      "peremptory": 6256,
      "scholar": 6257,
      "vineyard": 6258,
      "wrangling": 6259,
      "thwack": 6260,
      "insolence": 6261,
      "orphans": 6262,
      "especially": 6263,
      "attach": 6264,
      "ashore": 6265,
      "notwithstanding": 6266,
      "lodowick": 6267,
      "rapiers": 6268,
      "hercules": 6269,
      "prerogative": 6270,
      "bachelor": 6271,
      "distressed": 6272,
      "heaviness": 6273,
      "diadem": 6274,
      "jocund": 6275,
      "precedent": 6276,
      "preposterous": 6277,
      "calumny": 6278,
      "ake": 6279,
      "aper": 6280,
      "ail": 6281,
      "afri": 6282,
      "aled": 6283,
      "aery": 6284,
      "aqua": 6285,
      "awares": 6286,
      "bun": 6287,
      "bies": 6288,
      "batter": 6289,
      "bits": 6290,
      "bier": 6291,
      "bide": 6292,
      "bborn": 6293,
      "bats": 6294,
      "bash": 6295,
      "bility": 6296,
      "boured": 6297,
      "chea": 6298,
      "cleave": 6299,
      "ckey": 6300,
      "dent": 6301,
      "dun": 6302,
      "dart": 6303,
      "dight": 6304,
      "dive": 6305,
      "dling": 6306,
      "dens": 6307,
      "dast": 6308,
      "dlow": 6309,
      "ddy": 6310,
      "dally": 6311,
      "dler": 6312,
      "dances": 6313,
      "duteous": 6314,
      "donet": 6315,
      "eg": 6316,
      "eu": 6317,
      "eves": 6318,
      "egg": 6319,
      "emul": 6320,
      "elected": 6321,
      "fen": 6322,
      "fut": 6323,
      "fter": 6324,
      "fend": 6325,
      "fence": 6326,
      "fling": 6327,
      "fowl": 6328,
      "gor": 6329,
      "gli": 6330,
      "glove": 6331,
      "gna": 6332,
      "gild": 6333,
      "gird": 6334,
      "gorge": 6335,
      "gilt": 6336,
      "hint": 6337,
      "hates": 6338,
      "iate": 6339,
      "imed": 6340,
      "ibat": 6341,
      "iquity": 6342,
      "jar": 6343,
      "james": 6344,
      "kers": 6345,
      "kerd": 6346,
      "kitch": 6347,
      "lish": 6348,
      "lass": 6349,
      "lars": 6350,
      "lore": 6351,
      "mart": 6352,
      "mute": 6353,
      "mended": 6354,
      "nin": 6355,
      "nation": 6356,
      "nuns": 6357,
      "oce": 6358,
      "pan": 6359,
      "pon": 6360,
      "ply": 6361,
      "pink": 6362,
      "pins": 6363,
      "pond": 6364,
      "pump": 6365,
      "pines": 6366,
      "portion": 6367,
      "plots": 6368,
      "rent": 6369,
      "rings": 6370,
      "rates": 6371,
      "sn": 6372,
      "sma": 6373,
      "smi": 6374,
      "scra": 6375,
      "squar": 6376,
      "swarm": 6377,
      "slend": 6378,
      "swine": 6379,
      "tir": 6380,
      "tam": 6381,
      "tling": 6382,
      "tunes": 6383,
      "tides": 6384,
      "tires": 6385,
      "tsey": 6386,
      "uly": 6387,
      "uge": 6388,
      "uble": 6389,
      "vion": 6390,
      "vation": 6391,
      "vap": 6392,
      "vita": 6393,
      "waf": 6394,
      "zine": 6395,
      "thren": 6396,
      "ann": 6397,
      "anno": 6398,
      "angu": 6399,
      "ancy": 6400,
      "inv": 6401,
      "inso": 6402,
      "infa": 6403,
      "inty": 6404,
      "inite": 6405,
      "incur": 6406,
      "infirm": 6407,
      "iniquity": 6408,
      "orch": 6409,
      "ortive": 6410,
      "enro": 6411,
      "ende": 6412,
      "ensue": 6413,
      "engross": 6414,
      "argues": 6415,
      "ists": 6416,
      "escap": 6417,
      "atone": 6418,
      "atory": 6419,
      "lls": 6420,
      "toes": 6421,
      "tock": 6422,
      "toys": 6423,
      "tomary": 6424,
      "stle": 6425,
      "stal": 6426,
      "stam": 6427,
      "stif": 6428,
      "stage": 6429,
      "states": 6430,
      "steter": 6431,
      "starts": 6432,
      "stony": 6433,
      "mew": 6434,
      "mets": 6435,
      "methoughts": 6436,
      "haw": 6437,
      "haven": 6438,
      "hams": 6439,
      "ingly": 6440,
      "ingrat": 6441,
      "seth": 6442,
      "seed": 6443,
      "secur": 6444,
      "sequi": 6445,
      "sevent": 6446,
      "seats": 6447,
      "seaside": 6448,
      "lebr": 6449,
      "lehill": 6450,
      "lechery": 6451,
      "beho": 6452,
      "bewr": 6453,
      "belongs": 6454,
      "hew": 6455,
      "remo": 6456,
      "rehear": 6457,
      "remn": 6458,
      "regreet": 6459,
      "remiss": 6460,
      "revell": 6461,
      "repaid": 6462,
      "vehe": 6463,
      "veil": 6464,
      "chy": 6465,
      "cherd": 6466,
      "chides": 6467,
      "chron": 6468,
      "rod": 6469,
      "road": 6470,
      "rood": 6471,
      "rogues": 6472,
      "forso": 6473,
      "forms": 6474,
      "forrest": 6475,
      "forlor": 6476,
      "ases": 6477,
      "assay": 6478,
      "ashy": 6479,
      "celebr": 6480,
      "edic": 6481,
      "edict": 6482,
      "lian": 6483,
      "liver": 6484,
      "liars": 6485,
      "lifes": 6486,
      "livion": 6487,
      "irish": 6488,
      "web": 6489,
      "weens": 6490,
      "utchd": 6491,
      "keen": 6492,
      "usage": 6493,
      "ushes": 6494,
      "usions": 6495,
      "usale": 6496,
      "uspicious": 6497,
      "rides": 6498,
      "ribb": 6499,
      "rigour": 6500,
      "dex": 6501,
      "delu": 6502,
      "demi": 6503,
      "defect": 6504,
      "detect": 6505,
      "devised": 6506,
      "deposing": 6507,
      "defiance": 6508,
      "degenerate": 6509,
      "lockd": 6510,
      "witht": 6511,
      "soar": 6512,
      "soil": 6513,
      "soild": 6514,
      "sober": 6515,
      "soeer": 6516,
      "solace": 6517,
      "enters": 6518,
      "cog": 6519,
      "cox": 6520,
      "coin": 6521,
      "cool": 6522,
      "coats": 6523,
      "goest": 6524,
      "gomer": 6525,
      "gozine": 6526,
      "hides": 6527,
      "eteen": 6528,
      "aday": 6529,
      "adding": 6530,
      "butcherd": 6531,
      "unman": 6532,
      "unlike": 6533,
      "ungentle": 6534,
      "unrest": 6535,
      "unpeople": 6536,
      "unthri": 6537,
      "undance": 6538,
      "unders": 6539,
      "unlikely": 6540,
      "unpleasing": 6541,
      "unprovided": 6542,
      "ungovernd": 6543,
      "untainted": 6544,
      "unavoided": 6545,
      "unwield": 6546,
      "unusual": 6547,
      "unsheathe": 6548,
      "unaccustomd": 6549,
      "unawares": 6550,
      "iod": 6551,
      "alla": 6552,
      "allied": 6553,
      "allsouls": 6554,
      "estab": 6555,
      "doit": 6556,
      "doings": 6557,
      "doting": 6558,
      "dooms": 6559,
      "doleful": 6560,
      "uring": 6561,
      "urbs": 6562,
      "urging": 6563,
      "rap": 6564,
      "raign": 6565,
      "rapt": 6566,
      "raged": 6567,
      "raze": 6568,
      "razed": 6569,
      "rapier": 6570,
      "rabble": 6571,
      "ragozine": 6572,
      "mab": 6573,
      "map": 6574,
      "mathem": 6575,
      "magic": 6576,
      "makers": 6577,
      "kingd": 6578,
      "ordain": 6579,
      "orderd": 6580,
      "whatever": 6581,
      "amended": 6582,
      "aments": 6583,
      "ambush": 6584,
      "peck": 6585,
      "pelld": 6586,
      "peasant": 6587,
      "verge": 6588,
      "verity": 6589,
      "verdict": 6590,
      "illbeseeming": 6591,
      "shamest": 6592,
      "femin": 6593,
      "hered": 6594,
      "herbert": 6595,
      "fable": 6596,
      "faster": 6597,
      "fails": 6598,
      "fabric": 6599,
      "factious": 6600,
      "gear": 6601,
      "geia": 6602,
      "mankind": 6603,
      "manacles": 6604,
      "mangled": 6605,
      "sues": 6606,
      "sulp": 6607,
      "lame": 6608,
      "laught": 6609,
      "lacks": 6610,
      "lackd": 6611,
      "labours": 6612,
      "lazy": 6613,
      "laboured": 6614,
      "lackey": 6615,
      "tax": 6616,
      "prised": 6617,
      "profferd": 6618,
      "tick": 6619,
      "tiers": 6620,
      "timer": 6621,
      "tiber": 6622,
      "tigers": 6623,
      "poll": 6624,
      "potion": 6625,
      "poised": 6626,
      "conj": 6627,
      "cony": 6628,
      "conver": 6629,
      "convers": 6630,
      "convent": 6631,
      "conserves": 6632,
      "terate": 6633,
      "ternal": 6634,
      "shouts": 6635,
      "quo": 6636,
      "quess": 6637,
      "morsel": 6638,
      "mortimer": 6639,
      "whipped": 6640,
      "compelld": 6641,
      "upper": 6642,
      "boo": 6643,
      "box": 6644,
      "cable": 6645,
      "caged": 6646,
      "hog": 6647,
      "hoo": 6648,
      "hoard": 6649,
      "hoop": 6650,
      "homi": 6651,
      "hollo": 6652,
      "lete": 6653,
      "goodman": 6654,
      "mois": 6655,
      "moans": 6656,
      "molehill": 6657,
      "dug": 6658,
      "dul": 6659,
      "ducats": 6660,
      "marquess": 6661,
      "sied": 6662,
      "sigeia": 6663,
      "simois": 6664,
      "muse": 6665,
      "muddy": 6666,
      "shear": 6667,
      "sheets": 6668,
      "teeming": 6669,
      "prover": 6670,
      "prote": 6671,
      "peror": 6672,
      "perch": 6673,
      "peration": 6674,
      "perishd": 6675,
      "perused": 6676,
      "peradventure": 6677,
      "percei": 6678,
      "period": 6679,
      "wasp": 6680,
      "whoop": 6681,
      "vener": 6682,
      "cankerd": 6683,
      "theyre": 6684,
      "howling": 6685,
      "saving": 6686,
      "sails": 6687,
      "broils": 6688,
      "akes": 6689,
      "seemed": 6690,
      "seemeth": 6691,
      "richly": 6692,
      "ilis": 6693,
      "glister": 6694,
      "iege": 6695,
      "wary": 6696,
      "agate": 6697,
      "agony": 6698,
      "spell": 6699,
      "lure": 6700,
      "lukes": 6701,
      "ludlow": 6702,
      "bauble": 6703,
      "foil": 6704,
      "foaming": 6705,
      "fooling": 6706,
      "whereer": 6707,
      "whereby": 6708,
      "whereupon": 6709,
      "auster": 6710,
      "somebody": 6711,
      "upons": 6712,
      "trudge": 6713,
      "juno": 6714,
      "jule": 6715,
      "jump": 6716,
      "soninlaw": 6717,
      "range": 6718,
      "mercur": 6719,
      "merits": 6720,
      "cide": 6721,
      "cible": 6722,
      "civious": 6723,
      "vigour": 6724,
      "derived": 6725,
      "corpor": 6726,
      "dislike": 6727,
      "disput": 6728,
      "distill": 6729,
      "dissent": 6730,
      "discer": 6731,
      "diseas": 6732,
      "displeased": 6733,
      "disloyal": 6734,
      "disinherit": 6735,
      "discovery": 6736,
      "discipl": 6737,
      "disinherited": 6738,
      "disorderd": 6739,
      "brine": 6740,
      "brats": 6741,
      "blos": 6742,
      "blots": 6743,
      "blocks": 6744,
      "deathbed": 6745,
      "gentry": 6746,
      "mistook": 6747,
      "misfortunes": 6748,
      "miscarried": 6749,
      "petti": 6750,
      "givet": 6751,
      "serp": 6752,
      "thinkest": 6753,
      "sweart": 6754,
      "swept": 6755,
      "tellus": 6756,
      "lanes": 6757,
      "lances": 6758,
      "spies": 6759,
      "sparing": 6760,
      "exp": 6761,
      "exha": 6762,
      "excla": 6763,
      "expost": 6764,
      "excels": 6765,
      "external": 6766,
      "gued": 6767,
      "guild": 6768,
      "guide": 6769,
      "lookst": 6770,
      "handle": 6771,
      "handsome": 6772,
      "handker": 6773,
      "clout": 6774,
      "abate": 6775,
      "abides": 6776,
      "ability": 6777,
      "abuses": 6778,
      "abund": 6779,
      "abundance": 6780,
      "abed": 6781,
      "dick": 6782,
      "divers": 6783,
      "digress": 6784,
      "diligence": 6785,
      "brotherinlaw": 6786,
      "desir": 6787,
      "desol": 6788,
      "descried": 6789,
      "desired": 6790,
      "afres": 6791,
      "afire": 6792,
      "brethren": 6793,
      "burial": 6794,
      "bustle": 6795,
      "accompany": 6796,
      "acquit": 6797,
      "acheth": 6798,
      "standst": 6799,
      "fairies": 6800,
      "leather": 6801,
      "prayd": 6802,
      "callst": 6803,
      "calling": 6804,
      "linger": 6805,
      "fearless": 6806,
      "greatly": 6807,
      "angle": 6808,
      "angled": 6809,
      "trad": 6810,
      "icing": 6811,
      "ical": 6812,
      "precise": 6813,
      "sweeten": 6814,
      "fortnight": 6815,
      "agems": 6816,
      "betro": 6817,
      "garter": 6818,
      "garment": 6819,
      "lively": 6820,
      "petruchios": 6821,
      "inable": 6822,
      "redou": 6823,
      "setst": 6824,
      "priami": 6825,
      "residence": 6826,
      "resisted": 6827,
      "julius": 6828,
      "fiends": 6829,
      "ficial": 6830,
      "fickle": 6831,
      "longing": 6832,
      "wrench": 6833,
      "oppose": 6834,
      "park": 6835,
      "parle": 6836,
      "paras": 6837,
      "parlous": 6838,
      "parcel": 6839,
      "effemin": 6840,
      "poorest": 6841,
      "prescri": 6842,
      "presump": 6843,
      "presseth": 6844,
      "impose": 6845,
      "imposition": 6846,
      "resteth": 6847,
      "clog": 6848,
      "sses": 6849,
      "treble": 6850,
      "angelos": 6851,
      "aching": 6852,
      "besiege": 6853,
      "mightily": 6854,
      "cheers": 6855,
      "gazed": 6856,
      "traff": 6857,
      "traged": 6858,
      "travel": 6859,
      "begging": 6860,
      "shower": 6861,
      "clap": 6862,
      "calf": 6863,
      "lighted": 6864,
      "tendom": 6865,
      "harms": 6866,
      "harlot": 6867,
      "henceforward": 6868,
      "dearst": 6869,
      "clip": 6870,
      "flinty": 6871,
      "commune": 6872,
      "charms": 6873,
      "charters": 6874,
      "braind": 6875,
      "brazen": 6876,
      "senis": 6877,
      "undergo": 6878,
      "purged": 6879,
      "purses": 6880,
      "purposes": 6881,
      "helen": 6882,
      "helms": 6883,
      "helmets": 6884,
      "curbs": 6885,
      "blasp": 6886,
      "customary": 6887,
      "subor": 6888,
      "subdue": 6889,
      "submission": 6890,
      "suburbs": 6891,
      "happen": 6892,
      "highest": 6893,
      "justly": 6894,
      "justify": 6895,
      "pleaseth": 6896,
      "busied": 6897,
      "denial": 6898,
      "finding": 6899,
      "cleft": 6900,
      "horror": 6901,
      "horrible": 6902,
      "emperor": 6903,
      "needy": 6904,
      "needle": 6905,
      "complete": 6906,
      "hopeless": 6907,
      "waving": 6908,
      "confined": 6909,
      "confounds": 6910,
      "confusion": 6911,
      "confusions": 6912,
      "bench": 6913,
      "benedic": 6914,
      "chain": 6915,
      "chaff": 6916,
      "chafed": 6917,
      "fallible": 6918,
      "bringing": 6919,
      "boding": 6920,
      "gery": 6921,
      "kennel": 6922,
      "ominous": 6923,
      "borough": 6924,
      "stole": 6925,
      "yew": 6926,
      "lucentios": 6927,
      "creation": 6928,
      "grub": 6929,
      "grumbling": 6930,
      "kills": 6931,
      "helping": 6932,
      "overheard": 6933,
      "overthrow": 6934,
      "overblown": 6935,
      "shameless": 6936,
      "womanish": 6937,
      "provoke": 6938,
      "bridge": 6939,
      "shift": 6940,
      "shippd": 6941,
      "stride": 6942,
      "stripes": 6943,
      "witty": 6944,
      "witting": 6945,
      "choke": 6946,
      "chool": 6947,
      "wrongfully": 6948,
      "cession": 6949,
      "running": 6950,
      "weepst": 6951,
      "versal": 6952,
      "player": 6953,
      "players": 6954,
      "playfellow": 6955,
      "ville": 6956,
      "villan": 6957,
      "bargain": 6958,
      "barrd": 6959,
      "xture": 6960,
      "doublet": 6961,
      "beseem": 6962,
      "crack": 6963,
      "crafts": 6964,
      "oerbear": 6965,
      "oerrun": 6966,
      "oerwhel": 6967,
      "stray": 6968,
      "minal": 6969,
      "minster": 6970,
      "minstre": 6971,
      "passes": 6972,
      "talkst": 6973,
      "talked": 6974,
      "sending": 6975,
      "swearing": 6976,
      "scare": 6977,
      "scru": 6978,
      "scouts": 6979,
      "threefold": 6980,
      "bery": 6981,
      "bering": 6982,
      "berries": 6983,
      "gotten": 6984,
      "darken": 6985,
      "knell": 6986,
      "visor": 6987,
      "deserts": 6988,
      "deserving": 6989,
      "bites": 6990,
      "wearing": 6991,
      "straind": 6992,
      "commandment": 6993,
      "spoils": 6994,
      "relation": 6995,
      "countryman": 6996,
      "groand": 6997,
      "grove": 6998,
      "igation": 6999,
      "wantons": 7000,
      "winding": 7001,
      "sawst": 7002,
      "doubtless": 7003,
      "breaths": 7004,
      "wishes": 7005,
      "colder": 7006,
      "appeard": 7007,
      "freeze": 7008,
      "message": 7009,
      "askd": 7010,
      "asked": 7011,
      "citys": 7012,
      "watching": 7013,
      "watchful": 7014,
      "interest": 7015,
      "intercession": 7016,
      "fitter": 7017,
      "fitting": 7018,
      "lamp": 7019,
      "footing": 7020,
      "mirror": 7021,
      "delivery": 7022,
      "returns": 7023,
      "widower": 7024,
      "throughly": 7025,
      "remembering": 7026,
      "remembered": 7027,
      "changeling": 7028,
      "nearest": 7029,
      "hyme": 7030,
      "valent": 7031,
      "valued": 7032,
      "soonest": 7033,
      "harder": 7034,
      "painful": 7035,
      "supple": 7036,
      "corns": 7037,
      "corner": 7038,
      "corners": 7039,
      "impute": 7040,
      "implore": 7041,
      "touches": 7042,
      "bolder": 7043,
      "entering": 7044,
      "enterprise": 7045,
      "strangely": 7046,
      "nerves": 7047,
      "losses": 7048,
      "quicken": 7049,
      "surly": 7050,
      "surname": 7051,
      "survey": 7052,
      "surprised": 7053,
      "profound": 7054,
      "quarter": 7055,
      "quarters": 7056,
      "womens": 7057,
      "plucked": 7058,
      "entreated": 7059,
      "advanta": 7060,
      "worthier": 7061,
      "worthiest": 7062,
      "pipe": 7063,
      "pikes": 7064,
      "piled": 7065,
      "leader": 7066,
      "leading": 7067,
      "presses": 7068,
      "casting": 7069,
      "dishes": 7070,
      "elders": 7071,
      "masqu": 7072,
      "masks": 7073,
      "antial": 7074,
      "posts": 7075,
      "consume": 7076,
      "countermand": 7077,
      "deliverance": 7078,
      "acting": 7079,
      "croppd": 7080,
      "hoping": 7081,
      "moveables": 7082,
      "speedily": 7083,
      "opening": 7084,
      "abode": 7085,
      "droppd": 7086,
      "plent": 7087,
      "plough": 7088,
      "plashy": 7089,
      "trod": 7090,
      "ordering": 7091,
      "shorten": 7092,
      "flatterd": 7093,
      "flatterer": 7094,
      "penury": 7095,
      "torches": 7096,
      "obdur": 7097,
      "obsequ": 7098,
      "obsequi": 7099,
      "oblivion": 7100,
      "wondering": 7101,
      "walking": 7102,
      "walks": 7103,
      "throws": 7104,
      "streak": 7105,
      "mortality": 7106,
      "crimes": 7107,
      "criminal": 7108,
      "thorny": 7109,
      "mities": 7110,
      "wheel": 7111,
      "sickly": 7112,
      "clouded": 7113,
      "cheerful": 7114,
      "appearing": 7115,
      "usurps": 7116,
      "consented": 7117,
      "marchd": 7118,
      "filling": 7119,
      "filled": 7120,
      "nip": 7121,
      "violate": 7122,
      "skin": 7123,
      "skil": 7124,
      "sprites": 7125,
      "proceeding": 7126,
      "speeches": 7127,
      "speechless": 7128,
      "stuck": 7129,
      "studied": 7130,
      "studies": 7131,
      "stubborn": 7132,
      "liberties": 7133,
      "feasting": 7134,
      "victors": 7135,
      "beginning": 7136,
      "briefly": 7137,
      "visiting": 7138,
      "knavery": 7139,
      "palmers": 7140,
      "scarrd": 7141,
      "frownd": 7142,
      "frowning": 7143,
      "troubles": 7144,
      "fresher": 7145,
      "galld": 7146,
      "gallop": 7147,
      "gallows": 7148,
      "celld": 7149,
      "respects": 7150,
      "ginger": 7151,
      "rutlands": 7152,
      "stains": 7153,
      "bawdy": 7154,
      "beggary": 7155,
      "beggarly": 7156,
      "lamentations": 7157,
      "dishonest": 7158,
      "dishonours": 7159,
      "successful": 7160,
      "planet": 7161,
      "swim": 7162,
      "swifter": 7163,
      "susan": 7164,
      "mocked": 7165,
      "darkly": 7166,
      "influ": 7167,
      "infancy": 7168,
      "infinite": 7169,
      "favourable": 7170,
      "patiently": 7171,
      "freshest": 7172,
      "passa": 7173,
      "chertsey": 7174,
      "forbids": 7175,
      "forbidden": 7176,
      "malignant": 7177,
      "space": 7178,
      "westminster": 7179,
      "staring": 7180,
      "starved": 7181,
      "christendom": 7182,
      "teaching": 7183,
      "provok": 7184,
      "warmd": 7185,
      "innocen": 7186,
      "wildly": 7187,
      "greets": 7188,
      "drinks": 7189,
      "embraces": 7190,
      "censured": 7191,
      "girls": 7192,
      "mounted": 7193,
      "whereso": 7194,
      "shock": 7195,
      "shoot": 7196,
      "wombs": 7197,
      "lusters": 7198,
      "continu": 7199,
      "continued": 7200,
      "births": 7201,
      "cuff": 7202,
      "mutually": 7203,
      "mutinies": 7204,
      "severity": 7205,
      "courageous": 7206,
      "englishman": 7207,
      "drowning": 7208,
      "nymph": 7209,
      "pierced": 7210,
      "enjoys": 7211,
      "proofs": 7212,
      "drunkard": 7213,
      "swiftly": 7214,
      "listen": 7215,
      "moder": 7216,
      "stabbed": 7217,
      "reckless": 7218,
      "authorities": 7219,
      "clamorous": 7220,
      "desperately": 7221,
      "effects": 7222,
      "enforcement": 7223,
      "allowing": 7224,
      "persuaded": 7225,
      "persuades": 7226,
      "preparation": 7227,
      "grossly": 7228,
      "considering": 7229,
      "wretchedness": 7230,
      "amazon": 7231,
      "arrival": 7232,
      "refuge": 7233,
      "deceased": 7234,
      "kindreds": 7235,
      "substantial": 7236,
      "wailing": 7237,
      "stealing": 7238,
      "clubs": 7239,
      "dwelling": 7240,
      "dainty": 7241,
      "smoking": 7242,
      "schoold": 7243,
      "revoke": 7244,
      "weighs": 7245,
      "weighing": 7246,
      "dealing": 7247,
      "qualities": 7248,
      "properly": 7249,
      "tyrants": 7250,
      "petitions": 7251,
      "privately": 7252,
      "questiond": 7253,
      "stoopd": 7254,
      "fancies": 7255,
      "wagon": 7256,
      "redee": 7257,
      "necessities": 7258,
      "prevails": 7259,
      "professd": 7260,
      "profession": 7261,
      "prophecies": 7262,
      "directly": 7263,
      "embracements": 7264,
      "driven": 7265,
      "flag": 7266,
      "fretting": 7267,
      "wonted": 7268,
      "region": 7269,
      "delpho": 7270,
      "negligent": 7271,
      "shuts": 7272,
      "resignd": 7273,
      "advancement": 7274,
      "innocents": 7275,
      "ballads": 7276,
      "election": 7277,
      "elements": 7278,
      "freed": 7279,
      "journ": 7280,
      "numbering": 7281,
      "plotted": 7282,
      "thirsty": 7283,
      "informd": 7284,
      "conspiracy": 7285,
      "complaints": 7286,
      "senatehouse": 7287,
      "pursues": 7288,
      "suppertime": 7289,
      "apparelld": 7290,
      "approaches": 7291,
      "schoolboys": 7292,
      "crad": 7293,
      "fifty": 7294,
      "smelt": 7295,
      "slide": 7296,
      "slippd": 7297,
      "turtle": 7298,
      "turks": 7299,
      "leanness": 7300,
      "vexation": 7301,
      "lookingglass": 7302,
      "posterns": 7303,
      "protectors": 7304,
      "offenders": 7305,
      "expressly": 7306,
      "witchcraft": 7307,
      "conquerors": 7308,
      "fashions": 7309,
      "basilis": 7310,
      "hunting": 7311,
      "lineal": 7312,
      "lineaments": 7313,
      "instin": 7314,
      "instance": 7315,
      "injured": 7316,
      "alteration": 7317,
      "ravens": 7318,
      "affected": 7319,
      "accusations": 7320,
      "companions": 7321,
      "bastardy": 7322,
      "suspected": 7323,
      "slaughterhouse": 7324,
      "agreement": 7325,
      "bonny": 7326,
      "bonnet": 7327,
      "furnished": 7328,
      "tumbling": 7329,
      "tumult": 7330,
      "rosemary": 7331,
      "depth": 7332,
      "shunnd": 7333,
      "maidenhead": 7334,
      "nettles": 7335,
      "ports": 7336,
      "sainted": 7337,
      "tinent": 7338,
      "stretchd": 7339,
      "hills": 7340,
      "disperse": 7341,
      "waiting": 7342,
      "jewels": 7343,
      "instructions": 7344,
      "acquaintance": 7345,
      "swallowd": 7346,
      "awful": 7347,
      "bills": 7348,
      "ceremony": 7349,
      "fishes": 7350,
      "argument": 7351,
      "arguments": 7352,
      "issues": 7353,
      "atics": 7354,
      "unjustly": 7355,
      "dissembling": 7356,
      "examine": 7357,
      "heavily": 7358,
      "restrained": 7359,
      "punishment": 7360,
      "neglected": 7361,
      "figured": 7362,
      "gamut": 7363,
      "pupil": 7364,
      "swoln": 7365,
      "incense": 7366,
      "receipt": 7367,
      "detested": 7368,
      "detestable": 7369,
      "feeble": 7370,
      "complexions": 7371,
      "dismissd": 7372,
      "jointure": 7373,
      "floods": 7374,
      "inheritance": 7375,
      "manifested": 7376,
      "reconciled": 7377,
      "coffin": 7378,
      "coffers": 7379,
      "filthy": 7380,
      "latin": 7381,
      "lurking": 7382,
      "pillars": 7383,
      "russia": 7384,
      "songs": 7385,
      "slug": 7386,
      "anchors": 7387,
      "article": 7388,
      "articles": 7389,
      "stumbled": 7390,
      "assemble": 7391,
      "assembly": 7392,
      "celsa": 7393,
      "wealthy": 7394,
      "decree": 7395,
      "mariner": 7396,
      "blemishd": 7397,
      "disguise": 7398,
      "brandon": 7399,
      "brittle": 7400,
      "buzz": 7401,
      "buzzard": 7402,
      "gratis": 7403,
      "thankfulness": 7404,
      "beauties": 7405,
      "physician": 7406,
      "evident": 7407,
      "hatchd": 7408,
      "hatches": 7409,
      "attorneys": 7410,
      "melted": 7411,
      "befalln": 7412,
      "regia": 7413,
      "devouring": 7414,
      "collect": 7415,
      "prodigy": 7416,
      "exceeds": 7417,
      "trencher": 7418,
      "trenches": 7419,
      "trimmd": 7420,
      "transgress": 7421,
      "tongueless": 7422,
      "borrowd": 7423,
      "drooping": 7424,
      "lengthend": 7425,
      "lengthens": 7426,
      "sacrifice": 7427,
      "blasts": 7428,
      "cardinal": 7429,
      "crutch": 7430,
      "crutches": 7431,
      "jacks": 7432,
      "nourishd": 7433,
      "rarest": 7434,
      "rheum": 7435,
      "session": 7436,
      "enrichd": 7437,
      "hallowmas": 7438,
      "robbers": 7439,
      "decrees": 7440,
      "shrug": 7441,
      "discreet": 7442,
      "discretion": 7443,
      "bristol": 7444,
      "clerk": 7445,
      "clergy": 7446,
      "cushion": 7447,
      "cushions": 7448,
      "complices": 7449,
      "benefactors": 7450,
      "spotted": 7451,
      "threepence": 7452,
      "adulteress": 7453,
      "bulk": 7454,
      "jerusale": 7455,
      "lascivious": 7456,
      "scaped": 7457,
      "ancestors": 7458,
      "invention": 7459,
      "ensuing": 7460,
      "environed": 7461,
      "sticks": 7462,
      "ingrateful": 7463,
      "separated": 7464,
      "requital": 7465,
      "cobham": 7466,
      "adopted": 7467,
      "butterfly": 7468,
      "unluckily": 7469,
      "ambass": 7470,
      "congeald": 7471,
      "momentary": 7472,
      "proclaimed": 7473,
      "perfume": 7474,
      "broachd": 7475,
      "spectators": 7476,
      "spectacle": 7477,
      "audience": 7478,
      "exactly": 7479,
      "experienced": 7480,
      "resemblance": 7481,
      "insinuate": 7482,
      "carrion": 7483,
      "afterwards": 7484,
      "subdued": 7485,
      "confederate": 7486,
      "champion": 7487,
      "creeping": 7488,
      "qualify": 7489,
      "sparkling": 7490,
      "fantastical": 7491,
      "yesternight": 7492,
      "magistrate": 7493,
      "distinguish": 7494,
      "drowsy": 7495,
      "fliers": 7496,
      "linen": 7497,
      "longe": 7498,
      "niece": 7499,
      "scourge": 7500,
      "toucheth": 7501,
      "threshold": 7502,
      "inveterate": 7503,
      "argosy": 7504,
      "beetle": 7505,
      "hector": 7506,
      "reproach": 7507,
      "relieve": 7508,
      "chivalry": 7509,
      "foretell": 7510,
      "fornication": 7511,
      "deformity": 7512,
      "ordinance": 7513,
      "fathom": 7514,
      "construe": 7515,
      "howeer": 7516,
      "shelter": 7517,
      "indifferent": 7518,
      "savoury": 7519,
      "distinctly": 7520,
      "officious": 7521,
      "montgomer": 7522,
      "reserved": 7523,
      "rescued": 7524,
      "paralleld": 7525,
      "imprisond": 7526,
      "treaty": 7527,
      "commodity": 7528,
      "purchased": 7529,
      "subscribe": 7530,
      "stratagems": 7531,
      "interpretation": 7532,
      "applause": 7533,
      "crosby": 7534,
      "crookback": 7535,
      "obscured": 7536,
      "infringe": 7537,
      "cuckolds": 7538,
      "signories": 7539,
      "eloquence": 7540,
      "bunch": 7541,
      "battery": 7542,
      "bashful": 7543,
      "dighton": 7544,
      "dastard": 7545,
      "europe": 7546,
      "emulation": 7547,
      "future": 7548,
      "nineteen": 7549,
      "smiled": 7550,
      "slender": 7551,
      "ulysses": 7552,
      "vitae": 7553,
      "annoy": 7554,
      "anguish": 7555,
      "insolent": 7556,
      "infamy": 7557,
      "infirmity": 7558,
      "orchard": 7559,
      "endea": 7560,
      "steterat": 7561,
      "ingratitude": 7562,
      "security": 7563,
      "bewray": 7564,
      "remote": 7565,
      "revelld": 7566,
      "forsook": 7567,
      "forlorn": 7568,
      "unwieldy": 7569,
      "doomsday": 7570,
      "mathematics": 7571,
      "sulphur": 7572,
      "laughter": 7573,
      "homicide": 7574,
      "perceives": 7575,
      "mercury": 7576,
      "dispute": 7577,
      "dissentious": 7578,
      "diseases": 7579,
      "exclaims": 7580,
      "abundant": 7581,
      "afresh": 7582,
      "effeminate": 7583,
      "traffic": 7584,
      "blasphe": 7585,
      "minstrels": 7586,
      "obdurate": 7587,
      "obsequies": 7588,
      "innocency": 7589,
      "delphos": 7590,
      "jerusalem": 7591,
      "montgomery": 7592,
      "aut": 7593,
      "ahold": 7594,
      "aved": 7595,
      "ava": 7596,
      "awak": 7597,
      "awaking": 7598,
      "astery": 7599,
      "abroach": 7600,
      "auspicious": 7601,
      "bard": 7602,
      "bly": 7603,
      "bers": 7604,
      "bough": 7605,
      "bars": 7606,
      "bted": 7607,
      "berd": 7608,
      "bended": 7609,
      "baked": 7610,
      "bbering": 7611,
      "clan": 7612,
      "cens": 7613,
      "cass": 7614,
      "couch": 7615,
      "cends": 7616,
      "ctable": 7617,
      "cident": 7618,
      "cado": 7619,
      "culate": 7620,
      "clusters": 7621,
      "dst": 7622,
      "dit": 7623,
      "doff": 7624,
      "dles": 7625,
      "dough": 7626,
      "dates": 7627,
      "daint": 7628,
      "dones": 7629,
      "dpiece": 7630,
      "daff": 7631,
      "diff": 7632,
      "darts": 7633,
      "duns": 7634,
      "ean": 7635,
      "ethe": 7636,
      "ece": 7637,
      "eats": 7638,
      "fis": 7639,
      "fay": 7640,
      "fry": 7641,
      "fates": 7642,
      "flaw": 7643,
      "ffolk": 7644,
      "fined": 7645,
      "faded": 7646,
      "glo": 7647,
      "gest": 7648,
      "gess": 7649,
      "gil": 7650,
      "ghast": 7651,
      "gab": 7652,
      "gance": 7653,
      "gger": 7654,
      "gments": 7655,
      "gilly": 7656,
      "han": 7657,
      "hin": 7658,
      "hent": 7659,
      "hest": 7660,
      "ip": 7661,
      "ix": 7662,
      "ili": 7663,
      "ithere": 7664,
      "ives": 7665,
      "iable": 7666,
      "igree": 7667,
      "jor": 7668,
      "jay": 7669,
      "jars": 7670,
      "jaunt": 7671,
      "jades": 7672,
      "kates": 7673,
      "knights": 7674,
      "lone": 7675,
      "lant": 7676,
      "lving": 7677,
      "latter": 7678,
      "linter": 7679,
      "lished": 7680,
      "lash": 7681,
      "lines": 7682,
      "mson": 7683,
      "mpa": 7684,
      "mic": 7685,
      "mass": 7686,
      "msey": 7687,
      "minable": 7688,
      "nst": 7689,
      "nity": 7690,
      "nings": 7691,
      "nerd": 7692,
      "nards": 7693,
      "nations": 7694,
      "och": 7695,
      "oly": 7696,
      "opp": 7697,
      "osing": 7698,
      "pse": 7699,
      "pod": 7700,
      "pher": 7701,
      "pru": 7702,
      "pence": 7703,
      "pout": 7704,
      "pang": 7705,
      "pies": 7706,
      "pith": 7707,
      "pious": 7708,
      "rst": 7709,
      "ral": 7710,
      "rine": 7711,
      "rite": 7712,
      "rors": 7713,
      "rounds": 7714,
      "rhyme": 7715,
      "sou": 7716,
      "sid": 7717,
      "sher": 7718,
      "sne": 7719,
      "sers": 7720,
      "sci": 7721,
      "scor": 7722,
      "swer": 7723,
      "soften": 7724,
      "sways": 7725,
      "smock": 7726,
      "switch": 7727,
      "slower": 7728,
      "snar": 7729,
      "swan": 7730,
      "tet": 7731,
      "tart": 7732,
      "tough": 7733,
      "tche": 7734,
      "tore": 7735,
      "tuous": 7736,
      "tatterd": 7737,
      "uto": 7738,
      "uries": 7739,
      "ucali": 7740,
      "ucation": 7741,
      "vou": 7742,
      "vall": 7743,
      "vend": 7744,
      "vius": 7745,
      "vag": 7746,
      "vince": 7747,
      "vors": 7748,
      "varri": 7749,
      "wers": 7750,
      "wls": 7751,
      "waded": 7752,
      "xd": 7753,
      "xor": 7754,
      "xander": 7755,
      "yers": 7756,
      "zie": 7757,
      "thd": 7758,
      "thar": 7759,
      "thra": 7760,
      "thigh": 7761,
      "thaw": 7762,
      "thimble": 7763,
      "thwart": 7764,
      "anth": 7765,
      "angling": 7766,
      "eral": 7767,
      "erness": 7768,
      "errd": 7769,
      "erpillars": 7770,
      "init": 7771,
      "inest": 7772,
      "infe": 7773,
      "invo": 7774,
      "infi": 7775,
      "inside": 7776,
      "incertain": 7777,
      "invest": 7778,
      "inches": 7779,
      "inforced": 7780,
      "inhuman": 7781,
      "inquired": 7782,
      "index": 7783,
      "incaged": 7784,
      "incorpor": 7785,
      "infallible": 7786,
      "thes": 7787,
      "thearted": 7788,
      "orb": 7789,
      "oro": 7790,
      "orange": 7791,
      "orison": 7792,
      "orges": 7793,
      "orators": 7794,
      "oratory": 7795,
      "enor": 7796,
      "ensign": 7797,
      "enious": 7798,
      "ensible": 7799,
      "engage": 7800,
      "enjoind": 7801,
      "envied": 7802,
      "encompass": 7803,
      "encamp": 7804,
      "enzie": 7805,
      "arro": 7806,
      "ared": 7807,
      "argi": 7808,
      "arith": 7809,
      "artial": 7810,
      "arraign": 7811,
      "ism": 7812,
      "ista": 7813,
      "isans": 7814,
      "islands": 7815,
      "isheth": 7816,
      "ese": 7817,
      "onas": 7818,
      "anders": 7819,
      "andond": 7820,
      "andtwenty": 7821,
      "atest": 7822,
      "attain": 7823,
      "attemp": 7824,
      "atrice": 7825,
      "atiate": 7826,
      "llist": 7827,
      "llables": 7828,
      "tood": 7829,
      "toise": 7830,
      "topping": 7831,
      "tokens": 7832,
      "tossd": 7833,
      "towls": 7834,
      "sters": 7835,
      "stings": 7836,
      "station": 7837,
      "stair": 7838,
      "stinted": 7839,
      "stafford": 7840,
      "stalls": 7841,
      "stacles": 7842,
      "stoned": 7843,
      "staves": 7844,
      "stake": 7845,
      "mea": 7846,
      "member": 7847,
      "meats": 7848,
      "metic": 7849,
      "meek": 7850,
      "novice": 7851,
      "nobody": 7852,
      "noisome": 7853,
      "hal": 7854,
      "hay": 7855,
      "hackd": 7856,
      "haunts": 7857,
      "hacket": 7858,
      "habi": 7859,
      "ingenious": 7860,
      "sear": 7861,
      "seve": 7862,
      "sect": 7863,
      "seque": 7864,
      "semb": 7865,
      "secut": 7866,
      "seeds": 7867,
      "seals": 7868,
      "seph": 7869,
      "ofs": 7870,
      "ofold": 7871,
      "whist": 7872,
      "leaf": 7873,
      "leash": 7874,
      "lethar": 7875,
      "wive": 7876,
      "beit": 7877,
      "beam": 7878,
      "beck": 7879,
      "bemo": 7880,
      "beque": 7881,
      "betake": 7882,
      "befell": 7883,
      "bewitch": 7884,
      "beheaded": 7885,
      "hey": 7886,
      "heath": 7887,
      "hewn": 7888,
      "heated": 7889,
      "reth": 7890,
      "reve": 7891,
      "reli": 7892,
      "reard": 7893,
      "repa": 7894,
      "reel": 7895,
      "regent": 7896,
      "redi": 7897,
      "repre": 7898,
      "reins": 7899,
      "recount": 7900,
      "recomfort": 7901,
      "refer": 7902,
      "remit": 7903,
      "refresh": 7904,
      "reduce": 7905,
      "relig": 7906,
      "rections": 7907,
      "recoil": 7908,
      "itor": 7909,
      "itle": 7910,
      "itary": 7911,
      "ittering": 7912,
      "vein": 7913,
      "veild": 7914,
      "chin": 7915,
      "chion": 7916,
      "chie": 7917,
      "chment": 7918,
      "chatter": 7919,
      "channe": 7920,
      "chants": 7921,
      "choked": 7922,
      "roe": 7923,
      "robe": 7924,
      "roger": 7925,
      "romes": 7926,
      "roots": 7927,
      "robert": 7928,
      "rooted": 7929,
      "foren": 7930,
      "forsa": 7931,
      "forged": 7932,
      "forges": 7933,
      "forswore": 7934,
      "forfeits": 7935,
      "forfend": 7936,
      "asks": 7937,
      "asunder": 7938,
      "assign": 7939,
      "assail": 7940,
      "associ": 7941,
      "cement": 7942,
      "edst": 7943,
      "education": 7944,
      "lix": 7945,
      "lime": 7946,
      "liby": 7947,
      "lict": 7948,
      "libr": 7949,
      "limp": 7950,
      "lical": 7951,
      "limed": 7952,
      "liments": 7953,
      "lids": 7954,
      "irons": 7955,
      "ldst": 7956,
      "lding": 7957,
      "weeks": 7958,
      "utish": 7959,
      "ereth": 7960,
      "notable": 7961,
      "user": 7962,
      "ushed": 7963,
      "rider": 7964,
      "rift": 7965,
      "riot": 7966,
      "ripen": 7967,
      "ribs": 7968,
      "ripest": 7969,
      "deity": 7970,
      "deign": 7971,
      "deem": 7972,
      "dels": 7973,
      "demes": 7974,
      "decess": 7975,
      "deckd": 7976,
      "defaced": 7977,
      "detaind": 7978,
      "deformed": 7979,
      "deucali": 7980,
      "lop": 7981,
      "lope": 7982,
      "losing": 7983,
      "logs": 7984,
      "logy": 7985,
      "logic": 7986,
      "lolling": 7987,
      "logger": 7988,
      "withholds": 7989,
      "sob": 7990,
      "sop": 7991,
      "sops": 7992,
      "sojourn": 7993,
      "entation": 7994,
      "entail": 7995,
      "coy": 7996,
      "cote": 7997,
      "coven": 7998,
      "cocks": 7999,
      "copest": 8000,
      "covet": 8001,
      "copy": 8002,
      "codpiece": 8003,
      "thouse": 8004,
      "thoult": 8005,
      "thouldst": 8006,
      "hilt": 8007,
      "hidden": 8008,
      "owed": 8009,
      "owest": 8010,
      "etry": 8011,
      "alus": 8012,
      "albion": 8013,
      "adam": 8014,
      "adder": 8015,
      "admon": 8016,
      "admits": 8017,
      "adjudged": 8018,
      "hiss": 8019,
      "hist": 8020,
      "unro": 8021,
      "unspeak": 8022,
      "uncrown": 8023,
      "unkind": 8024,
      "unted": 8025,
      "unable": 8026,
      "unlaw": 8027,
      "ungracious": 8028,
      "unwise": 8029,
      "unstan": 8030,
      "unrever": 8031,
      "unquiet": 8032,
      "unconstant": 8033,
      "unprepared": 8034,
      "unsway": 8035,
      "unadvised": 8036,
      "untaught": 8037,
      "unwillingly": 8038,
      "unmerit": 8039,
      "unapt": 8040,
      "unstaind": 8041,
      "unwholesome": 8042,
      "unfelt": 8043,
      "unsettled": 8044,
      "unpitied": 8045,
      "unknit": 8046,
      "unhallow": 8047,
      "unfortunate": 8048,
      "unbuckle": 8049,
      "unreasonable": 8050,
      "ungrateful": 8051,
      "unbruised": 8052,
      "unkingd": 8053,
      "unskil": 8054,
      "unwonted": 8055,
      "unsuspected": 8056,
      "unthankfulness": 8057,
      "unsavoury": 8058,
      "unparalleld": 8059,
      "havet": 8060,
      "dole": 8061,
      "doers": 8062,
      "urer": 8063,
      "urally": 8064,
      "urrections": 8065,
      "rase": 8066,
      "rakes": 8067,
      "raught": 8068,
      "rags": 8069,
      "raising": 8070,
      "mam": 8071,
      "maw": 8072,
      "mament": 8073,
      "magn": 8074,
      "maim": 8075,
      "macy": 8076,
      "makest": 8077,
      "maculate": 8078,
      "maseve": 8079,
      "odils": 8080,
      "orders": 8081,
      "nows": 8082,
      "amer": 8083,
      "amis": 8084,
      "amour": 8085,
      "amoun": 8086,
      "ample": 8087,
      "ampt": 8088,
      "peg": 8089,
      "pew": 8090,
      "peth": 8091,
      "peerd": 8092,
      "peering": 8093,
      "pelting": 8094,
      "pective": 8095,
      "verns": 8096,
      "veriest": 8097,
      "verified": 8098,
      "veronas": 8099,
      "ills": 8100,
      "shaft": 8101,
      "shaken": 8102,
      "iderd": 8103,
      "willow": 8104,
      "fade": 8105,
      "famed": 8106,
      "geon": 8107,
      "georges": 8108,
      "geese": 8109,
      "oneous": 8110,
      "manors": 8111,
      "mansion": 8112,
      "mannd": 8113,
      "neth": 8114,
      "nell": 8115,
      "nels": 8116,
      "necks": 8117,
      "neapo": 8118,
      "nephe": 8119,
      "byr": 8120,
      "bygone": 8121,
      "rub": 8122,
      "ruind": 8123,
      "rubs": 8124,
      "rubb": 8125,
      "ruffi": 8126,
      "sums": 8127,
      "sucking": 8128,
      "sustain": 8129,
      "suffolk": 8130,
      "lable": 8131,
      "lawn": 8132,
      "tast": 8133,
      "tape": 8134,
      "tage": 8135,
      "taild": 8136,
      "taunt": 8137,
      "taff": 8138,
      "tabour": 8139,
      "tables": 8140,
      "tails": 8141,
      "prone": 8142,
      "proro": 8143,
      "prenzie": 8144,
      "tip": 8145,
      "tile": 8146,
      "tiful": 8147,
      "tickle": 8148,
      "timorous": 8149,
      "ifs": 8150,
      "ift": 8151,
      "pots": 8152,
      "poise": 8153,
      "poten": 8154,
      "polit": 8155,
      "poets": 8156,
      "popul": 8157,
      "poetry": 8158,
      "conte": 8159,
      "conject": 8160,
      "contemp": 8161,
      "conceived": 8162,
      "contains": 8163,
      "contag": 8164,
      "conspire": 8165,
      "constrains": 8166,
      "constables": 8167,
      "shy": 8168,
      "shor": 8169,
      "shrun": 8170,
      "shalls": 8171,
      "ending": 8172,
      "enders": 8173,
      "endless": 8174,
      "quent": 8175,
      "quond": 8176,
      "quishd": 8177,
      "quaff": 8178,
      "morant": 8179,
      "moralize": 8180,
      "whippd": 8181,
      "whipping": 8182,
      "compa": 8183,
      "compet": 8184,
      "upbra": 8185,
      "upholds": 8186,
      "upturned": 8187,
      "uphin": 8188,
      "bos": 8189,
      "boat": 8190,
      "bossd": 8191,
      "cakes": 8192,
      "cavil": 8193,
      "causer": 8194,
      "hob": 8195,
      "holl": 8196,
      "hover": 8197,
      "holes": 8198,
      "holla": 8199,
      "hoot": 8200,
      "letst": 8201,
      "letting": 8202,
      "wellseeming": 8203,
      "wellspoken": 8204,
      "welladvised": 8205,
      "welladay": 8206,
      "mocks": 8207,
      "motive": 8208,
      "duck": 8209,
      "dump": 8210,
      "dugs": 8211,
      "dulous": 8212,
      "dumps": 8213,
      "marquis": 8214,
      "sip": 8215,
      "size": 8216,
      "sions": 8217,
      "mured": 8218,
      "sheer": 8219,
      "sheath": 8220,
      "shelves": 8221,
      "text": 8222,
      "proves": 8223,
      "prodi": 8224,
      "provin": 8225,
      "prolong": 8226,
      "propose": 8227,
      "project": 8228,
      "probation": 8229,
      "progress": 8230,
      "provision": 8231,
      "procures": 8232,
      "prolix": 8233,
      "peruse": 8234,
      "pertain": 8235,
      "perfid": 8236,
      "performed": 8237,
      "pertinent": 8238,
      "wasps": 8239,
      "washed": 8240,
      "thankings": 8241,
      "inexor": 8242,
      "aths": 8243,
      "athwart": 8244,
      "therewithal": 8245,
      "moreover": 8246,
      "bleared": 8247,
      "hereof": 8248,
      "heretic": 8249,
      "venus": 8250,
      "venuto": 8251,
      "rows": 8252,
      "canor": 8253,
      "canon": 8254,
      "canker": 8255,
      "cannibal": 8256,
      "cancelld": 8257,
      "inder": 8258,
      "indign": 8259,
      "indict": 8260,
      "menace": 8261,
      "sayt": 8262,
      "howld": 8263,
      "howsoever": 8264,
      "outside": 8265,
      "saves": 8266,
      "sacre": 8267,
      "savours": 8268,
      "working": 8269,
      "works": 8270,
      "worcester": 8271,
      "brood": 8272,
      "brooch": 8273,
      "selfborn": 8274,
      "akest": 8275,
      "ctures": 8276,
      "richer": 8277,
      "loveth": 8278,
      "lovelier": 8279,
      "wool": 8280,
      "iless": 8281,
      "ilities": 8282,
      "glance": 8283,
      "glittering": 8284,
      "warp": 8285,
      "warnd": 8286,
      "agon": 8287,
      "specially": 8288,
      "lump": 8289,
      "lucy": 8290,
      "baw": 8291,
      "baits": 8292,
      "baited": 8293,
      "baleful": 8294,
      "babies": 8295,
      "foison": 8296,
      "footed": 8297,
      "whereat": 8298,
      "wherewith": 8299,
      "augment": 8300,
      "aubd": 8301,
      "forego": 8302,
      "foremost": 8303,
      "forefathers": 8304,
      "voy": 8305,
      "void": 8306,
      "volous": 8307,
      "firmament": 8308,
      "friars": 8309,
      "frivolous": 8310,
      "trum": 8311,
      "judi": 8312,
      "inkle": 8313,
      "mbler": 8314,
      "graver": 8315,
      "gramer": 8316,
      "grains": 8317,
      "grapes": 8318,
      "gravity": 8319,
      "packing": 8320,
      "packd": 8321,
      "paced": 8322,
      "earls": 8323,
      "fatherinlaw": 8324,
      "merited": 8325,
      "cipit": 8326,
      "cipal": 8327,
      "ciency": 8328,
      "cipher": 8329,
      "via": 8330,
      "viand": 8331,
      "vily": 8332,
      "viper": 8333,
      "vials": 8334,
      "vizard": 8335,
      "derous": 8336,
      "derick": 8337,
      "tool": 8338,
      "coral": 8339,
      "corpse": 8340,
      "cormorant": 8341,
      "dispar": 8342,
      "dissen": 8343,
      "disgracious": 8344,
      "disclaim": 8345,
      "disposit": 8346,
      "discredit": 8347,
      "distemper": 8348,
      "disobedience": 8349,
      "disobedient": 8350,
      "distribut": 8351,
      "discourses": 8352,
      "distance": 8353,
      "distaff": 8354,
      "brutish": 8355,
      "hastily": 8356,
      "tying": 8357,
      "type": 8358,
      "gentles": 8359,
      "gentleness": 8360,
      "mise": 8361,
      "mises": 8362,
      "misled": 8363,
      "misused": 8364,
      "mistaen": 8365,
      "misadventure": 8366,
      "missive": 8367,
      "server": 8368,
      "servile": 8369,
      "sweethe": 8370,
      "tellst": 8371,
      "lane": 8372,
      "span": 8373,
      "spill": 8374,
      "sphere": 8375,
      "splinter": 8376,
      "spakest": 8377,
      "gentlewomen": 8378,
      "yorkshire": 8379,
      "extra": 8380,
      "excus": 8381,
      "extemp": 8382,
      "exposed": 8383,
      "examp": 8384,
      "extol": 8385,
      "exiled": 8386,
      "extir": 8387,
      "guides": 8388,
      "guile": 8389,
      "guards": 8390,
      "fulness": 8391,
      "fulfil": 8392,
      "fulfilled": 8393,
      "navy": 8394,
      "handled": 8395,
      "hearers": 8396,
      "hearken": 8397,
      "hearkens": 8398,
      "monday": 8399,
      "monies": 8400,
      "monastery": 8401,
      "heaved": 8402,
      "heaps": 8403,
      "clutchd": 8404,
      "abound": 8405,
      "abond": 8406,
      "abject": 8407,
      "abstin": 8408,
      "abortive": 8409,
      "abandond": 8410,
      "lessend": 8411,
      "lessond": 8412,
      "lessons": 8413,
      "dians": 8414,
      "dials": 8415,
      "diggd": 8416,
      "jog": 8417,
      "jolly": 8418,
      "joseph": 8419,
      "desiring": 8420,
      "descant": 8421,
      "desperation": 8422,
      "gnar": 8423,
      "tsy": 8424,
      "affrighted": 8425,
      "affiance": 8426,
      "affable": 8427,
      "breach": 8428,
      "breton": 8429,
      "breeder": 8430,
      "bug": 8431,
      "bum": 8432,
      "bull": 8433,
      "buds": 8434,
      "bubble": 8435,
      "counts": 8436,
      "mpt": 8437,
      "ache": 8438,
      "acre": 8439,
      "active": 8440,
      "accompan": 8441,
      "accounted": 8442,
      "eys": 8443,
      "anything": 8444,
      "standers": 8445,
      "standards": 8446,
      "newdeliverd": 8447,
      "praying": 8448,
      "prayed": 8449,
      "callt": 8450,
      "answers": 8451,
      "lingering": 8452,
      "ize": 8453,
      "honourably": 8454,
      "fearst": 8455,
      "greatst": 8456,
      "ics": 8457,
      "iction": 8458,
      "preys": 8459,
      "prefixd": 8460,
      "predomin": 8461,
      "predecess": 8462,
      "precipit": 8463,
      "ingschool": 8464,
      "plaster": 8465,
      "plagues": 8466,
      "plagued": 8467,
      "sweetst": 8468,
      "sweeting": 8469,
      "partisans": 8470,
      "bearst": 8471,
      "betid": 8472,
      "betweens": 8473,
      "garish": 8474,
      "garlands": 8475,
      "garlic": 8476,
      "namely": 8477,
      "headlong": 8478,
      "aways": 8479,
      "setter": 8480,
      "prig": 8481,
      "pricking": 8482,
      "prized": 8483,
      "privily": 8484,
      "resides": 8485,
      "respite": 8486,
      "respective": 8487,
      "madmen": 8488,
      "cuts": 8489,
      "assisted": 8490,
      "seconds": 8491,
      "file": 8492,
      "filed": 8493,
      "aph": 8494,
      "apes": 8495,
      "apish": 8496,
      "approve": 8497,
      "opent": 8498,
      "opend": 8499,
      "oused": 8500,
      "graceful": 8501,
      "graceless": 8502,
      "parti": 8503,
      "parks": 8504,
      "parley": 8505,
      "partial": 8506,
      "parcels": 8507,
      "parchment": 8508,
      "paragon": 8509,
      "courtiers": 8510,
      "coursers": 8511,
      "eff": 8512,
      "grin": 8513,
      "gray": 8514,
      "grind": 8515,
      "staying": 8516,
      "presage": 8517,
      "imes": 8518,
      "imple": 8519,
      "impos": 8520,
      "immoder": 8521,
      "immaculate": 8522,
      "resting": 8523,
      "restless": 8524,
      "restore": 8525,
      "insensible": 8526,
      "insatiate": 8527,
      "insurrections": 8528,
      "cloy": 8529,
      "cloven": 8530,
      "closet": 8531,
      "cloister": 8532,
      "treads": 8533,
      "retort": 8534,
      "ckings": 8535,
      "bidst": 8536,
      "cities": 8537,
      "eyesight": 8538,
      "rightful": 8539,
      "righteous": 8540,
      "atchd": 8541,
      "atches": 8542,
      "lordships": 8543,
      "cheat": 8544,
      "cheerd": 8545,
      "cheated": 8546,
      "gale": 8547,
      "gawd": 8548,
      "gavest": 8549,
      "gazing": 8550,
      "tribe": 8551,
      "tribes": 8552,
      "trivial": 8553,
      "trident": 8554,
      "childs": 8555,
      "childhood": 8556,
      "renew": 8557,
      "renounce": 8558,
      "evening": 8559,
      "track": 8560,
      "trained": 8561,
      "trample": 8562,
      "begs": 8563,
      "begna": 8564,
      "hammer": 8565,
      "welkin": 8566,
      "cambric": 8567,
      "nothings": 8568,
      "carpet": 8569,
      "carved": 8570,
      "carters": 8571,
      "carbon": 8572,
      "carcass": 8573,
      "llable": 8574,
      "claps": 8575,
      "clappd": 8576,
      "lightens": 8577,
      "tenth": 8578,
      "tenor": 8579,
      "talks": 8580,
      "gripe": 8581,
      "litan": 8582,
      "litter": 8583,
      "harlots": 8584,
      "kindle": 8585,
      "kindest": 8586,
      "betters": 8587,
      "bettering": 8588,
      "giant": 8589,
      "mixture": 8590,
      "mixd": 8591,
      "cythere": 8592,
      "cypress": 8593,
      "clime": 8594,
      "ivy": 8595,
      "ivity": 8596,
      "tongued": 8597,
      "flout": 8598,
      "flung": 8599,
      "sicils": 8600,
      "charter": 8601,
      "brach": 8602,
      "brake": 8603,
      "braving": 8604,
      "brags": 8605,
      "bragg": 8606,
      "twos": 8607,
      "banns": 8608,
      "farmers": 8609,
      "undertaking": 8610,
      "gentlemans": 8611,
      "gentlemanlike": 8612,
      "murderers": 8613,
      "purg": 8614,
      "purest": 8615,
      "purity": 8616,
      "purblind": 8617,
      "sleeve": 8618,
      "sleeves": 8619,
      "slavish": 8620,
      "meanst": 8621,
      "meanest": 8622,
      "curb": 8623,
      "cursing": 8624,
      "curfew": 8625,
      "curds": 8626,
      "curtains": 8627,
      "curtsy": 8628,
      "blishd": 8629,
      "blench": 8630,
      "blushes": 8631,
      "bestir": 8632,
      "bestrid": 8633,
      "tended": 8634,
      "submit": 8635,
      "highst": 8636,
      "highly": 8637,
      "justices": 8638,
      "justified": 8639,
      "lawless": 8640,
      "lawyers": 8641,
      "camillos": 8642,
      "denies": 8643,
      "denier": 8644,
      "cleard": 8645,
      "pardoning": 8646,
      "horsed": 8647,
      "horns": 8648,
      "needed": 8649,
      "complot": 8650,
      "complots": 8651,
      "dregs": 8652,
      "naturally": 8653,
      "nativity": 8654,
      "uneasy": 8655,
      "confis": 8656,
      "confine": 8657,
      "confident": 8658,
      "confessed": 8659,
      "conflict": 8660,
      "follower": 8661,
      "followed": 8662,
      "chaplain": 8663,
      "chaos": 8664,
      "chapel": 8665,
      "bodied": 8666,
      "steer": 8667,
      "steeld": 8668,
      "stealth": 8669,
      "fellowship": 8670,
      "homebred": 8671,
      "husbandry": 8672,
      "balance": 8673,
      "drag": 8674,
      "drain": 8675,
      "thrall": 8676,
      "stockings": 8677,
      "lasts": 8678,
      "lastly": 8679,
      "credulous": 8680,
      "everything": 8681,
      "grud": 8682,
      "grudge": 8683,
      "bedfellow": 8684,
      "servitor": 8685,
      "helped": 8686,
      "overmuch": 8687,
      "overtaen": 8688,
      "overboard": 8689,
      "overdones": 8690,
      "intoler": 8691,
      "welcomed": 8692,
      "replen": 8693,
      "shameful": 8694,
      "falter": 8695,
      "falcons": 8696,
      "falchion": 8697,
      "sunset": 8698,
      "abouts": 8699,
      "brick": 8700,
      "briers": 8701,
      "bridle": 8702,
      "jests": 8703,
      "strives": 8704,
      "striving": 8705,
      "strikes": 8706,
      "strifes": 8707,
      "witless": 8708,
      "northampt": 8709,
      "answering": 8710,
      "answered": 8711,
      "meets": 8712,
      "choosing": 8713,
      "wrongst": 8714,
      "geness": 8715,
      "rung": 8716,
      "runagate": 8717,
      "runnst": 8718,
      "signified": 8719,
      "fiddler": 8720,
      "stately": 8721,
      "pauls": 8722,
      "thousandfold": 8723,
      "proveth": 8724,
      "barne": 8725,
      "barbed": 8726,
      "barbers": 8727,
      "hitherward": 8728,
      "foolery": 8729,
      "eyebrows": 8730,
      "doubts": 8731,
      "doublets": 8732,
      "sounding": 8733,
      "cracks": 8734,
      "crazed": 8735,
      "cramps": 8736,
      "oerpast": 8737,
      "oercharged": 8738,
      "oershades": 8739,
      "sedition": 8740,
      "sedges": 8741,
      "lowest": 8742,
      "northumberlands": 8743,
      "strate": 8744,
      "strings": 8745,
      "ireful": 8746,
      "minion": 8747,
      "passado": 8748,
      "scoff": 8749,
      "formal": 8750,
      "formally": 8751,
      "berate": 8752,
      "hangmen": 8753,
      "visits": 8754,
      "visible": 8755,
      "seemst": 8756,
      "wiser": 8757,
      "wisdoms": 8758,
      "tomorrows": 8759,
      "surety": 8760,
      "bower": 8761,
      "career": 8762,
      "carefully": 8763,
      "wearied": 8764,
      "wearisome": 8765,
      "straining": 8766,
      "medlar": 8767,
      "frankd": 8768,
      "spoiled": 8769,
      "relate": 8770,
      "proudly": 8771,
      "dreaming": 8772,
      "groats": 8773,
      "grooms": 8774,
      "iously": 8775,
      "armies": 8776,
      "revenues": 8777,
      "shepherdess": 8778,
      "truths": 8779,
      "igate": 8780,
      "windy": 8781,
      "strangers": 8782,
      "strangeness": 8783,
      "readiest": 8784,
      "twin": 8785,
      "twofold": 8786,
      "commonly": 8787,
      "volumes": 8788,
      "largess": 8789,
      "beaver": 8790,
      "appeach": 8791,
      "trusted": 8792,
      "interior": 8793,
      "interrd": 8794,
      "intercep": 8795,
      "unclean": 8796,
      "honestly": 8797,
      "fitly": 8798,
      "fitness": 8799,
      "furred": 8800,
      "furlongs": 8801,
      "furthest": 8802,
      "lammaseve": 8803,
      "singing": 8804,
      "singly": 8805,
      "singled": 8806,
      "waterd": 8807,
      "miracle": 8808,
      "delicious": 8809,
      "delivers": 8810,
      "deliberate": 8811,
      "lucky": 8812,
      "luckless": 8813,
      "servingmen": 8814,
      "plainness": 8815,
      "sinful": 8816,
      "sincer": 8817,
      "throughout": 8818,
      "crystal": 8819,
      "hungar": 8820,
      "tendering": 8821,
      "generation": 8822,
      "generally": 8823,
      "flying": 8824,
      "lovesong": 8825,
      "nearness": 8826,
      "hypo": 8827,
      "pedlars": 8828,
      "pedigree": 8829,
      "valours": 8830,
      "pointed": 8831,
      "personally": 8832,
      "greyhound": 8833,
      "greyhounds": 8834,
      "reports": 8835,
      "hardfavourd": 8836,
      "promises": 8837,
      "warranted": 8838,
      "florent": 8839,
      "florence": 8840,
      "supposing": 8841,
      "supposes": 8842,
      "applied": 8843,
      "impri": 8844,
      "impart": 8845,
      "impreg": 8846,
      "impiety": 8847,
      "impartial": 8848,
      "bating": 8849,
      "entertaind": 8850,
      "purposed": 8851,
      "foundation": 8852,
      "deflower": 8853,
      "definit": 8854,
      "beholders": 8855,
      "fasts": 8856,
      "blowing": 8857,
      "dyed": 8858,
      "surpl": 8859,
      "surcease": 8860,
      "surprise": 8861,
      "surfeits": 8862,
      "quarterd": 8863,
      "twentythree": 8864,
      "entreats": 8865,
      "worthless": 8866,
      "judas": 8867,
      "judges": 8868,
      "exempt": 8869,
      "bounds": 8870,
      "boundless": 8871,
      "humours": 8872,
      "pile": 8873,
      "pickd": 8874,
      "pipes": 8875,
      "pictures": 8876,
      "wedlock": 8877,
      "castles": 8878,
      "richmonds": 8879,
      "bourn": 8880,
      "massacre": 8881,
      "twigs": 8882,
      "antipod": 8883,
      "posth": 8884,
      "posture": 8885,
      "counterpoised": 8886,
      "grants": 8887,
      "enemys": 8888,
      "executing": 8889,
      "acted": 8890,
      "crooked": 8891,
      "crotche": 8892,
      "attending": 8893,
      "attendance": 8894,
      "attendants": 8895,
      "feels": 8896,
      "feelt": 8897,
      "moveable": 8898,
      "speeds": 8899,
      "speeding": 8900,
      "openly": 8901,
      "abominable": 8902,
      "gains": 8903,
      "gainsay": 8904,
      "perdon": 8905,
      "perdition": 8906,
      "antonios": 8907,
      "drove": 8908,
      "dames": 8909,
      "damask": 8910,
      "fields": 8911,
      "plun": 8912,
      "salve": 8913,
      "salutation": 8914,
      "trot": 8915,
      "trodden": 8916,
      "ordered": 8917,
      "marriaged": 8918,
      "guiltier": 8919,
      "claimd": 8920,
      "flattery": 8921,
      "fertile": 8922,
      "penet": 8923,
      "pensive": 8924,
      "penalty": 8925,
      "tortoise": 8926,
      "mettle": 8927,
      "palefaced": 8928,
      "prettily": 8929,
      "cases": 8930,
      "casque": 8931,
      "hugh": 8932,
      "huggd": 8933,
      "humorous": 8934,
      "ladder": 8935,
      "obtain": 8936,
      "observ": 8937,
      "observe": 8938,
      "obtaind": 8939,
      "observed": 8940,
      "obstacles": 8941,
      "stirrup": 8942,
      "covering": 8943,
      "bravely": 8944,
      "flocks": 8945,
      "pieced": 8946,
      "strewd": 8947,
      "streams": 8948,
      "mortals": 8949,
      "crickets": 8950,
      "crimson": 8951,
      "testy": 8952,
      "testify": 8953,
      "thorse": 8954,
      "thrives": 8955,
      "thriving": 8956,
      "thrift": 8957,
      "italian": 8958,
      "principal": 8959,
      "certainty": 8960,
      "certainties": 8961,
      "strengths": 8962,
      "embar": 8963,
      "forgetst": 8964,
      "forgetfulness": 8965,
      "elbows": 8966,
      "cheering": 8967,
      "credent": 8968,
      "destined": 8969,
      "destinies": 8970,
      "risen": 8971,
      "weaker": 8972,
      "usurer": 8973,
      "usurers": 8974,
      "usurped": 8975,
      "usurpers": 8976,
      "eternity": 8977,
      "consents": 8978,
      "consenting": 8979,
      "marches": 8980,
      "harmful": 8981,
      "blacker": 8982,
      "cured": 8983,
      "mouthd": 8984,
      "nimbly": 8985,
      "nichol": 8986,
      "nicanor": 8987,
      "pities": 8988,
      "pitchers": 8989,
      "violets": 8990,
      "violable": 8991,
      "winning": 8992,
      "bells": 8993,
      "bellys": 8994,
      "skies": 8995,
      "sprang": 8996,
      "sprung": 8997,
      "proceeds": 8998,
      "proceeded": 8999,
      "writes": 9000,
      "hurld": 9001,
      "hurry": 9002,
      "hurts": 9003,
      "paying": 9004,
      "payment": 9005,
      "slys": 9006,
      "stumbling": 9007,
      "requests": 9008,
      "marianas": 9009,
      "basely": 9010,
      "denying": 9011,
      "dangerously": 9012,
      "fraught": 9013,
      "images": 9014,
      "knack": 9015,
      "palsied": 9016,
      "scarf": 9017,
      "scared": 9018,
      "forwardness": 9019,
      "greek": 9020,
      "vilely": 9021,
      "possessions": 9022,
      "bisson": 9023,
      "galled": 9024,
      "cedars": 9025,
      "sighing": 9026,
      "washing": 9027,
      "divides": 9028,
      "calldst": 9029,
      "respecting": 9030,
      "dreaded": 9031,
      "bitterest": 9032,
      "musical": 9033,
      "battlements": 9034,
      "cupboard": 9035,
      "cupbearer": 9036,
      "drugs": 9037,
      "drudge": 9038,
      "flowd": 9039,
      "ostentation": 9040,
      "vestal": 9041,
      "stained": 9042,
      "reversion": 9043,
      "coloured": 9044,
      "bawds": 9045,
      "lamented": 9046,
      "successes": 9047,
      "successively": 9048,
      "dawn": 9049,
      "daunt": 9050,
      "dauphin": 9051,
      "kinsmans": 9052,
      "churl": 9053,
      "easier": 9054,
      "matching": 9055,
      "slanderd": 9056,
      "infused": 9057,
      "cowards": 9058,
      "dotard": 9059,
      "favourites": 9060,
      "tilth": 9061,
      "condemns": 9062,
      "slaughters": 9063,
      "crosses": 9064,
      "crossing": 9065,
      "apology": 9066,
      "ethio": 9067,
      "million": 9068,
      "millstones": 9069,
      "tutors": 9070,
      "departing": 9071,
      "departed": 9072,
      "adds": 9073,
      "addition": 9074,
      "willingness": 9075,
      "woodcock": 9076,
      "abhorred": 9077,
      "quietly": 9078,
      "quietness": 9079,
      "obeys": 9080,
      "eased": 9081,
      "hating": 9082,
      "milder": 9083,
      "publishd": 9084,
      "spawn": 9085,
      "spacious": 9086,
      "westward": 9087,
      "hapless": 9088,
      "ridges": 9089,
      "riddle": 9090,
      "riddling": 9091,
      "ghosts": 9092,
      "conceiving": 9093,
      "conceives": 9094,
      "province": 9095,
      "mourner": 9096,
      "lectures": 9097,
      "wildgoose": 9098,
      "wilderness": 9099,
      "tailors": 9100,
      "extremities": 9101,
      "commendable": 9102,
      "barnet": 9103,
      "bohemias": 9104,
      "drybeat": 9105,
      "finely": 9106,
      "mountains": 9107,
      "stored": 9108,
      "stories": 9109,
      "leisurely": 9110,
      "rusty": 9111,
      "spurrd": 9112,
      "continent": 9113,
      "continency": 9114,
      "birthright": 9115,
      "alexander": 9116,
      "danced": 9117,
      "fingering": 9118,
      "mutton": 9119,
      "mutual": 9120,
      "encounterd": 9121,
      "encounters": 9122,
      "remaining": 9123,
      "sportful": 9124,
      "walkd": 9125,
      "dishonourable": 9126,
      "crupper": 9127,
      "drowned": 9128,
      "sorted": 9129,
      "target": 9130,
      "enjoying": 9131,
      "felld": 9132,
      "pageant": 9133,
      "despairing": 9134,
      "drunkards": 9135,
      "sympa": 9136,
      "syllables": 9137,
      "syllable": 9138,
      "utters": 9139,
      "uttered": 9140,
      "missd": 9141,
      "clamations": 9142,
      "customers": 9143,
      "strucken": 9144,
      "wretches": 9145,
      "gardenhouse": 9146,
      "kersey": 9147,
      "kernels": 9148,
      "punk": 9149,
      "puny": 9150,
      "punished": 9151,
      "stool": 9152,
      "vouches": 9153,
      "topmast": 9154,
      "hairs": 9155,
      "allowd": 9156,
      "allowed": 9157,
      "mannerly": 9158,
      "contrar": 9159,
      "capels": 9160,
      "laughd": 9161,
      "laughing": 9162,
      "during": 9163,
      "durance": 9164,
      "wingd": 9165,
      "wrapt": 9166,
      "arrive": 9167,
      "reflect": 9168,
      "licence": 9169,
      "december": 9170,
      "deceiving": 9171,
      "conveyance": 9172,
      "motions": 9173,
      "duellist": 9174,
      "dullest": 9175,
      "excused": 9176,
      "priests": 9177,
      "priestlike": 9178,
      "cruelty": 9179,
      "dwellest": 9180,
      "malady": 9181,
      "malcontent": 9182,
      "malaper": 9183,
      "malmsey": 9184,
      "smoke": 9185,
      "wentst": 9186,
      "incline": 9187,
      "inclining": 9188,
      "envying": 9189,
      "revolts": 9190,
      "revolving": 9191,
      "dealings": 9192,
      "cockle": 9193,
      "cockere": 9194,
      "cockatrice": 9195,
      "sharper": 9196,
      "petitioners": 9197,
      "springing": 9198,
      "springtime": 9199,
      "imagined": 9200,
      "wagging": 9201,
      "seasond": 9202,
      "seasick": 9203,
      "formerly": 9204,
      "devout": 9205,
      "necessaries": 9206,
      "conduit": 9207,
      "shrill": 9208,
      "shrieks": 9209,
      "bottle": 9210,
      "bottled": 9211,
      "despiteful": 9212,
      "countenances": 9213,
      "treading": 9214,
      "doubled": 9215,
      "patrimony": 9216,
      "professes": 9217,
      "trothplight": 9218,
      "prophets": 9219,
      "directed": 9220,
      "directitude": 9221,
      "fruittrees": 9222,
      "catched": 9223,
      "caterpillars": 9224,
      "drive": 9225,
      "flavius": 9226,
      "rayed": 9227,
      "noontide": 9228,
      "wealthily": 9229,
      "adoing": 9230,
      "negligence": 9231,
      "rudely": 9232,
      "conquerd": 9233,
      "imports": 9234,
      "importance": 9235,
      "importuned": 9236,
      "crowd": 9237,
      "frets": 9238,
[...]
